<unk>	0
<s>	0
</s>	0
s	-3.14633
.	-3.50549
▁the	-3.62935
,	-3.73439
▁to	-4.08624
▁a	-4.12019
▁in	-4.23757
▁of	-4.24287
ing	-4.47134
ed	-4.53002
-	-4.53326
▁and	-4.62991
▁on	-4.80524
▁	-4.8258
▁(	-4.92627
)	-4.93247
▁for	-4.96727
▁-	-4.98869
'	-5.12573
▁#39;	-5.2002
d	-5.39563
;	-5.44991
e	-5.56834
▁that	-5.57411
▁with	-5.60714
t	-5.6463
▁at	-5.65367
y	-5.654
▁The	-5.67335
&	-5.75283
▁as	-5.79705
er	-5.79996
▁by	-5.81427
S	-5.83666
▁is	-5.84369
▁its	-5.86176
▁said	-5.87696
Reuters	-5.88304
▁A	-5.93341
▁it	-5.95909
\	-5.96413
▁from	-5.96739
▁has	-5.98014
▁an	-5.99071
:	-6.0387
ly	-6.05264
n	-6.07576
▁his	-6.15445
▁was	-6.19647
▁U	-6.22118
▁US	-6.23834
al	-6.24426
▁be	-6.26812
lt	-6.31926
▁will	-6.32199
▁after	-6.32679
r	-6.36409
AP	-6.41263
a	-6.41916
/	-6.42264
gt	-6.43773
▁have	-6.43876
o	-6.44011
▁are	-6.46621
▁S	-6.46938
es	-6.47759
▁new	-6.49152
A	-6.50426
▁--	-6.508
▁their	-6.51
▁Tuesday	-6.51658
▁over	-6.5235
b	-6.55529
▁up	-6.59239
▁Olympic	-6.60195
▁first	-6.61204
m	-6.63023
▁Monday	-6.63265
▁Inc	-6.65691
▁AP	-6.67704
w	-6.69102
▁quot	-6.69647
▁more	-6.7025
▁Wednesday	-6.71652
p	-6.72757
▁two	-6.73627
▁but	-6.74659
▁he	-6.7757
▁company	-6.78195
▁P	-6.79688
i	-6.79752
N	-6.80188
l	-6.82031
▁H	-6.82188
▁out	-6.82252
...	-6.8228
▁C	-6.82322
in	-6.83422
▁...	-6.84121
on	-6.85048
▁this	-6.852
com	-6.86556
ar	-6.8749
▁Google	-6.89331
▁New	-6.89451
▁gold	-6.89916
▁not	-6.91149
"	-6.91644
▁B	-6.92194
▁Iraq	-6.95246
re	-6.95969
an	-6.96795
▁into	-6.9704
g	-6.98474
▁one	-6.99105
▁In	-6.99695
?	-7.00144
▁F	-7.0044
▁prices	-7.02624
▁who	-7.03895
ion	-7.03996
ers	-7.0409
▁about	-7.04272
▁ATHENS	-7.05141
▁than	-7.05373
O	-7.06007
▁oil	-7.06331
c	-7.08274
▁were	-7.0857
▁million	-7.11076
▁year	-7.11335
en	-7.11522
▁world	-7.12512
x	-7.1288
=	-7.13465
▁last	-7.13588
▁s	-7.13609
▁second	-7.13794
u	-7.15107
▁week	-7.15682
▁had	-7.17505
▁I	-7.18112
▁they	-7.18423
▁Reuters	-7.1844
th	-7.19245
▁United	-7.19359
;/	-7.19548
▁Thursday	-7.20913
▁against	-7.2103
2	-7.21157
▁three	-7.21378
▁been	-7.21805
▁NEW	-7.23237
▁Friday	-7.23471
▁yesterday	-7.24662
le	-7.25385
▁Sunday	-7.25395
▁E	-7.26337
▁medal	-7.26404
▁team	-7.27084
▁YORK	-7.27578
▁off	-7.28377
▁G	-7.30971
▁final	-7.31484
▁D	-7.31565
▁government	-7.31886
▁could	-7.32249
ation	-7.3278
▁which	-7.33418
▁T	-7.33608
B	-7.33696
or	-7.34206
▁al	-7.3457
▁market	-7.34782
▁Aug	-7.35276
▁percent	-7.35286
▁record	-7.35322
▁would	-7.36079
C	-7.36122
▁Microsoft	-7.36898
▁back	-7.37052
▁Corp	-7.37138
k	-7.38096
▁Olympics	-7.38525
▁all	-7.39127
▁China	-7.39364
I	-7.39723
▁American	-7.40195
ri	-7.40632
▁or	-7.40906
▁night	-7.41336
▁Oil	-7.41615
▁Athens	-7.42154
▁people	-7.43024
T	-7.43547
ic	-7.43823
▁time	-7.43896
▁M	-7.43957
▁Najaf	-7.4418
ve	-7.44842
▁win	-7.44977
▁p	-7.4673
▁when	-7.47789
▁some	-7.4806
▁Internet	-7.48974
ies	-7.49442
3	-7.49661
▁"	-7.49761
ur	-7.50495
▁N	-7.50794
Quote	-7.51102
P	-7.51417
▁Co	-7.51418
at	-7.51899
▁President	-7.52588
M	-7.53101
5	-7.5341
▁R	-7.53488
▁re	-7.53736
▁day	-7.53803
▁can	-7.53893
▁un	-7.55406
="	-7.5572
R	-7.55805
▁today	-7.55899
▁men	-7.56215
▁sales	-7.57679
est	-7.57836
▁public	-7.58564
h	-7.58572
▁States	-7.59142
▁help	-7.59224
▁her	-7.59649
▁years	-7.5978
▁target	-7.59901
L	-7.60543
▁may	-7.607
▁K	-7.60945
f	-7.61553
4	-7.6158
▁won	-7.61603
D	-7.61815
▁W	-7.61816
▁Greece	-7.62666
▁Saturday	-7.62666
▁software	-7.6337
to	-7.6339
▁end	-7.63901
▁O	-7.64404
ce	-7.64459
▁f	-7.64982
▁four	-7.65444
▁billion	-7.65742
▁2	-7.65832
▁says	-7.65953
E	-7.66147
▁down	-7.66374
us	-7.67209
▁Games	-7.68003
ro	-7.68732
▁just	-7.68811
▁deal	-7.68821
▁no	-7.69145
year	-7.70643
ter	-7.71093
it	-7.7146
▁high	-7.71663
▁home	-7.72
▁Iraqi	-7.72545
1	-7.74177
able	-7.74398
▁security	-7.74616
if	-7.75878
▁profit	-7.759
▁take	-7.75908
▁women	-7.76145
▁court	-7.76145
▁Bush	-7.76949
▁2004	-7.76969
▁victory	-7.77369
▁set	-7.77422
▁other	-7.77521
st	-7.78037
6	-7.78095
mp	-7.79366
▁officials	-7.79491
▁get	-7.7991
▁game	-7.79917
▁make	-7.80055
H	-7.80171
▁It	-7.80203
▁Windows	-7.80235
G	-7.80699
v	-7.8083
as	-7.81301
▁No	-7.81452
▁you	-7.81711
▁World	-7.82345
▁J	-7.82676
ht	-7.8292
▁Japan	-7.83191
et	-7.83937
▁business	-7.84373
▁stock	-7.84564
AFP	-7.84569
▁'	-7.84873
▁IPO	-7.84952
▁third	-7.8497
▁before	-7.85816
▁country	-7.8584
▁plans	-7.86941
▁offering	-7.87199
▁most	-7.87208
▁top	-7.87696
▁service	-7.87841
▁Bank	-7.88528
▁announced	-7.89112
largest	-7.89326
▁start	-7.89451
▁An	-7.89808
▁South	-7.89816
il	-7.89843
▁next	-7.90794
▁hit	-7.91093
://	-7.91261
ish	-7.91308
co	-7.91846
ww	-7.91937
▁Australia	-7.91965
▁reported	-7.92017
tp	-7.92037
▁price	-7.92693
z	-7.92704
▁month	-7.92778
ment	-7.92835
▁buy	-7.92929
▁AFP	-7.93067
▁accord	-7.93618
▁through	-7.93618
li	-7.93802
up	-7.93949
▁what	-7.94096
▁group	-7.94104
▁Web	-7.94602
▁so	-7.94788
F	-7.95415
▁3	-7.95615
ch	-7.95658
info	-7.95752
▁V	-7.95943
▁Minister	-7.96034
▁British	-7.96044
▁city	-7.96051
ticker	-7.97017
▁Mo	-7.9779
REF	-7.98015
euters	-7.98428
▁plan	-7.98776
▁least	-7.99011
quick	-7.99019
▁made	-7.99023
▁e	-7.99094
▁talks	-7.991
▁report	-7.99471
▁For	-7.99492
ary	-7.99945
▁long	-8.00401
▁19	-8.00806
▁face	-8.01256
se	-8.01697
8	-8.01839
ll	-8.01983
full	-8.02319
▁say	-8.02432
▁Phelps	-8.03125
▁giant	-8.03125
▁20	-8.03319
asp	-8.03365
▁lead	-8.03697
▁shares	-8.0381
▁companies	-8.04184
▁18	-8.04305
ad	-8.04362
7	-8.04394
investor	-8.04429
man	-8.04512
ive	-8.04534
▁Apple	-8.04717
▁Stocks	-8.04729
ra	-8.0499
▁York	-8.05247
Full	-8.05279
ther	-8.05366
▁major	-8.05785
▁way	-8.06416
stocks	-8.06609
▁another	-8.0687
quote	-8.07
▁4	-8.0704
▁St	-8.07162
old	-8.07394
▁search	-8.07415
ern	-8.07626
▁Pakistan	-8.07783
▁1	-8.0788
▁move	-8.07916
▁between	-8.07966
▁while	-8.07968
ta	-8.07991
▁cut	-8.0813
▁found	-8.08501
el	-8.0852
▁growth	-8.0855
▁Re	-8.08873
▁Up	-8.08955
▁military	-8.09073
▁West	-8.09168
ne	-8.09337
▁under	-8.09574
▁John	-8.09615
▁music	-8.09632
▁killed	-8.09929
▁him	-8.10199
te	-8.10256
ma	-8.10309
ite	-8.1103
▁them	-8.11306
▁police	-8.11326
▁work	-8.1135
U	-8.11648
▁state	-8.11849
▁pay	-8.11854
▁Group	-8.11898
▁After	-8.11898
un	-8.11915
lo	-8.12191
▁Al	-8.12489
▁July	-8.13662
ent	-8.13751
▁still	-8.14222
is	-8.14225
ian	-8.14437
▁she	-8.1478
▁August	-8.15398
▁With	-8.15463
▁season	-8.1558
▁firm	-8.15852
▁since	-8.16003
▁XP	-8.16013
▁per	-8.16171
▁investors	-8.16215
▁initial	-8.16591
▁WASHINGTON	-8.16598
▁Russian	-8.16727
▁demand	-8.17086
▁only	-8.17407
▁system	-8.17747
▁10	-8.1829
▁former	-8.18738
▁To	-8.19092
out	-8.1934
▁leader	-8.19372
K	-8.19463
based	-8.19477
▁higher	-8.19508
▁left	-8.1964
▁But	-8.19691
▁dur	-8.19724
▁now	-8.19837
▁online	-8.19974
▁do	-8.19993
▁head	-8.20527
▁maker	-8.20774
▁Paul	-8.209
▁five	-8.21572
▁biggest	-8.21584
▁file	-8.22236
▁play	-8.22559
▁part	-8.22619
▁technology	-8.22785
▁ra	-8.2307
ael	-8.23116
▁war	-8.23168
▁because	-8.23427
▁Mich	-8.23452
▁look	-8.23602
age	-8.2373
▁near	-8.23835
▁champion	-8.24062
▁National	-8.24071
▁days	-8.24344
▁He	-8.24548
▁Greek	-8.2472
ity	-8.24867
▁run	-8.24952
▁San	-8.25016
ng	-8.25361
▁early	-8.25374
▁North	-8.25377
▁latest	-8.2607
ate	-8.26284
▁use	-8.26286
0	-8.26511
▁released	-8.2652
▁Be	-8.26556
▁de	-8.26988
▁fell	-8.27404
▁release	-8.27604
meter	-8.27688
▁being	-8.27854
▁region	-8.28032
▁Kerry	-8.28041
▁Washington	-8.28042
▁capital	-8.28046
▁close	-8.28071
▁L	-8.28132
▁expected	-8.28417
▁like	-8.286
▁By	-8.28723
▁share	-8.29245
▁Darfur	-8.29388
▁IBM	-8.29388
▁launch	-8.29762
▁Over	-8.3012
▁Israeli	-8.30204
▁Red	-8.30284
▁Wi	-8.30713
▁International	-8.30762
▁official	-8.3079
▁agreed	-8.30928
▁attack	-8.30934
▁round	-8.311
▁100	-8.31172
▁even	-8.31217
▁Gold	-8.31459
▁More	-8.31589
▁go	-8.3174
▁open	-8.32103
▁India	-8.32128
▁federal	-8.32156
▁phone	-8.3219
▁six	-8.32785
▁users	-8.32842
▁industry	-8.32886
▁Say	-8.32993
▁put	-8.33317
▁ago	-8.33636
ver	-8.33737
▁quarter	-8.33881
▁nation	-8.33907
▁Sudan	-8.34274
▁test	-8.34639
ist	-8.34769
▁beat	-8.3492
▁b	-8.35061
▁race	-8.35141
▁stocks	-8.35233
▁many	-8.35353
▁Israel	-8.35609
▁contract	-8.35729
▁much	-8.35743
▁took	-8.35774
▁rebels	-8.35849
Y	-8.36395
▁cleric	-8.36458
la	-8.36725
▁support	-8.37089
▁rose	-8.37194
op	-8.37512
and	-8.377
ke	-8.37916
9	-8.38668
▁economy	-8.3868
▁Prime	-8.3868
▁used	-8.38686
▁including	-8.38695
▁boost	-8.38696
vi	-8.38903
um	-8.39164
V	-8.39265
▁Korea	-8.39288
▁c	-8.39414
▁Two	-8.39433
▁Court	-8.39433
▁rise	-8.39438
▁SP	-8.39515
▁where	-8.39634
▁man	-8.398
▁LONDON	-8.4019
▁Nepal	-8.4019
▁crude	-8.40201
am	-8.40237
▁return	-8.40634
▁computer	-8.41244
ia	-8.41452
▁sign	-8.41642
▁shrine	-8.41722
ance	-8.41961
▁nearly	-8.42006
ir	-8.42129
▁strike	-8.4232
▁earnings	-8.42507
▁shot	-8.42602
▁bid	-8.42634
▁how	-8.42649
▁Britain	-8.43279
▁competition	-8.43279
▁battle	-8.43728
▁7	-8.44363
▁past	-8.44381
▁Home	-8.44453
▁fall	-8.44738
▁pro	-8.44747
▁Shi	-8.44749
▁Research	-8.44757
▁car	-8.44859
▁strong	-8.44924
▁months	-8.44927
▁eight	-8.45607
▁follow	-8.4566
▁economic	-8.45667
▁try	-8.45774
▁troops	-8.45931
▁lower	-8.46017
▁Australian	-8.46055
▁hand	-8.46236
Sadr	-8.46469
▁power	-8.46576
▁there	-8.46907
▁data	-8.47278
▁keep	-8.47279
▁Wall	-8.47419
▁costs	-8.4793
▁case	-8.481
▁England	-8.48103
▁Ho	-8.48431
led	-8.48467
▁reports	-8.48499
▁give	-8.48715
▁develop	-8.4873
▁should	-8.48918
▁Is	-8.49046
▁Prices	-8.49064
▁Wal	-8.49195
▁t	-8.49226
▁forces	-8.49271
j	-8.49349
ted	-8.49468
▁America	-8.49528
▁loss	-8.49687
▁forecast	-8.49759
▁League	-8.49761
▁pull	-8.4977
day	-8.49922
be	-8.50119
▁services	-8.50205
less	-8.50391
▁Charley	-8.50599
▁update	-8.50608
▁coach	-8.50611
▁Open	-8.50623
▁17	-8.5076
▁ex	-8.50964
▁Profit	-8.51446
▁Press	-8.51508
▁news	-8.51514
▁add	-8.51612
tion	-8.51661
▁your	-8.51748
▁De	-8.51809
▁allow	-8.52386
me	-8.52876
▁Shares	-8.52976
id	-8.53011
▁international	-8.53163
▁Street	-8.53163
▁Hamm	-8.53163
▁minister	-8.53164
▁Sox	-8.5322
▁UK	-8.53442
▁retailer	-8.5358
▁called	-8.53773
per	-8.53787
▁Br	-8.53912
▁Japanese	-8.54071
▁order	-8.54099
uch	-8.54113
ell	-8.54261
im	-8.54271
▁Canadian	-8.54334
run	-8.54359
nt	-8.54598
▁far	-8.5483
W	-8.54834
▁accus	-8.54842
▁drop	-8.54915
▁control	-8.54971
▁become	-8.55165
Mart	-8.55185
▁any	-8.55453
▁La	-8.55583
▁Plan	-8.55766
ant	-8.5584
▁across	-8.5604
▁May	-8.56063
▁Americans	-8.56101
▁we	-8.56113
ine	-8.56163
▁break	-8.56523
ol	-8.56547
▁appear	-8.56665
▁video	-8.56687
J	-8.56766
▁cost	-8.56785
▁Service	-8.56857
▁right	-8.57002
ling	-8.57085
▁without	-8.57225
▁own	-8.5748
▁mobile	-8.57589
tada	-8.57611
ure	-8.57706
▁low	-8.57782
▁star	-8.58291
▁PC	-8.58365
▁key	-8.58493
▁Canada	-8.58498
▁title	-8.58498
▁NASA	-8.58498
▁airline	-8.58505
▁Post	-8.58521
▁barrel	-8.58524
▁Hurricane	-8.58531
▁anti	-8.58914
rom	-8.59211
▁trading	-8.59415
▁Airways	-8.59419
▁pre	-8.5946
▁held	-8.59503
▁Not	-8.59627
▁Cup	-8.59628
▁trial	-8.59641
ak	-8.59794
ting	-8.59883
▁ask	-8.5989
▁again	-8.60286
▁peace	-8.60341
▁Chicago	-8.6036
▁leading	-8.60504
ous	-8.60617
▁half	-8.60632
ig	-8.60721
ry	-8.60734
▁Report	-8.60743
▁12	-8.61147
▁basketball	-8.61276
▁Shiite	-8.61312
▁Linux	-8.61333
▁event	-8.61353
▁One	-8.61742
time	-8.61813
▁On	-8.61881
Fi	-8.62037
▁Europe	-8.62127
▁big	-8.62264
▁European	-8.62314
net	-8.62564
ge	-8.62658
av	-8.62664
▁around	-8.62711
▁Venezuela	-8.6294
▁Air	-8.63474
▁5	-8.6355
▁results	-8.64004
▁Profile	-8.64133
▁version	-8.64133
▁Chavez	-8.64134
▁sever	-8.6418
▁water	-8.64285
▁Germany	-8.64421
▁number	-8.6464
▁late	-8.64887
▁free	-8.65274
▁fourth	-8.65308
▁show	-8.65541
▁chip	-8.65794
▁hol	-8.65994
▁visit	-8.66065
de	-8.66346
▁see	-8.66553
▁d	-8.66924
▁8	-8.66969
▁opposition	-8.67074
▁Sharon	-8.6708
▁life	-8.67135
The	-8.67307
▁Taiwan	-8.68074
▁political	-8.68103
▁meters	-8.68169
ally	-8.68368
▁games	-8.68418
▁At	-8.68554
▁Out	-8.68718
der	-8.68755
▁small	-8.68776
▁Russia	-8.68854
no	-8.68924
▁reach	-8.69053
▁sell	-8.69077
▁arrest	-8.69084
▁little	-8.69084
▁jump	-8.691
quarter	-8.69295
ie	-8.6958
▁killing	-8.69657
▁due	-8.69683
▁here	-8.69863
▁good	-8.69889
▁UN	-8.70085
▁rally	-8.70116
▁Team	-8.70118
▁Commission	-8.70126
the	-8.70403
▁double	-8.70746
▁Network	-8.70962
▁fresh	-8.71136
▁recall	-8.71139
▁winning	-8.71145
▁co	-8.71408
ud	-8.7168
,000	-8.71768
▁offer	-8.72049
▁fighting	-8.72062
▁Wins	-8.72099
▁militia	-8.72165
▁Cisco	-8.72178
rs	-8.72221
tic	-8.72345
▁6	-8.7252
▁quarterly	-8.72528
▁scientists	-8.72816
▁bomb	-8.73018
▁seven	-8.73154
▁want	-8.73203
▁history	-8.73231
▁seek	-8.73297
▁ma	-8.73653
▁High	-8.7399
▁bank	-8.74177
ors	-8.74185
▁network	-8.74257
▁Exchange	-8.74294
▁financial	-8.74294
▁despite	-8.74305
▁also	-8.74323
▁23	-8.74426
▁field	-8.74568
▁national	-8.74896
▁full	-8.74959
▁research	-8.75025
ven	-8.75129
▁Africa	-8.75138
▁customers	-8.75138
▁death	-8.75382
▁consumer	-8.75392
▁track	-8.75472
▁vote	-8.75491
▁turn	-8.75515
▁light	-8.75611
▁\$1	-8.75805
▁ahead	-8.76029
▁away	-8.76037
▁Mark	-8.76444
▁French	-8.76456
▁NAJAF	-8.76456
▁might	-8.76456
▁showed	-8.76574
▁Army	-8.76671
▁legal	-8.76952
▁Ga	-8.76996
▁place	-8.77371
▁decision	-8.77555
▁fuel	-8.77555
▁great	-8.7757
▁same	-8.77584
▁making	-8.77677
pe	-8.77746
▁attacks	-8.77781
▁And	-8.78122
▁Win	-8.78383
▁slow	-8.7844
▁protest	-8.78561
▁li	-8.78601
▁chief	-8.78666
▁north	-8.78667
▁space	-8.78674
▁campaign	-8.78707
▁earlier	-8.78761
▁name	-8.78896
▁leave	-8.79251
▁line	-8.79443
▁whe	-8.79518
▁push	-8.7979
▁cash	-8.79803
▁hours	-8.79856
▁TV	-8.79888
▁This	-8.7998
▁Ro	-8.80457
▁party	-8.80536
▁Man	-8.80701
▁recent	-8.80723
▁tax	-8.80754
ho	-8.80824
▁Mars	-8.80885
▁energy	-8.80926
▁debut	-8.8093
▁End	-8.80973
ton	-8.81021
▁clear	-8.81101
▁16	-8.81124
▁well	-8.81158
▁Ma	-8.81364
ha	-8.81705
▁find	-8.8207
▁Intel	-8.82108
▁ended	-8.82154
▁fire	-8.82192
▁Los	-8.82425
▁Go	-8.8245
▁SAN	-8.82727
▁step	-8.82762
mo	-8.82795
ul	-8.82798
▁crisis	-8.83238
▁tournament	-8.83238
way	-8.8354
▁Yankees	-8.83793
▁bring	-8.83857
ny	-8.83977
▁German	-8.84077
▁200	-8.84135
▁sp	-8.84161
ub	-8.84253
▁Florida	-8.84415
▁violence	-8.84415
▁Computer	-8.84428
▁Texas	-8.84449
▁engine	-8.84603
▁militants	-8.84644
▁11	-8.84662
ca	-8.84806
most	-8.84858
▁bird	-8.85053
▁Sales	-8.85075
▁post	-8.85255
▁going	-8.85369
FONT	-8.85605
▁Federal	-8.85606
▁few	-8.85607
▁lost	-8.8565
▁Do	-8.85892
▁Top	-8.85943
▁using	-8.86014
ick	-8.86062
▁miss	-8.86085
▁AT	-8.86303
▁election	-8.86339
\\	-8.86391
▁con	-8.86546
▁War	-8.8657
na	-8.86605
▁president	-8.86796
▁Boston	-8.8681
▁Department	-8.8681
▁money	-8.8681
▁Iran	-8.86811
▁If	-8.87074
ER	-8.87117
▁\$2	-8.87295
ial	-8.87566
▁fast	-8.8781
▁posted	-8.87924
▁less	-8.88024
ut	-8.88163
▁workers	-8.88249
di	-8.88343
▁Pa	-8.88358
▁g	-8.8847
00	-8.8851
▁Real	-8.88627
TO	-8.88649
ach	-8.88769
▁hold	-8.88824
▁rules	-8.88828
▁join	-8.88907
▁As	-8.89093
▁gymnastics	-8.89265
▁Nortel	-8.89267
▁amid	-8.89275
▁download	-8.8928
▁Le	-8.89317
▁leaders	-8.89461
▁charged	-8.89528
▁mark	-8.89589
▁So	-8.89698
▁center	-8.89885
▁unit	-8.89905
▁design	-8.89906
▁retail	-8.89921
▁HP	-8.89938
▁trade	-8.90032
sh	-8.9027
ide	-8.90279
all	-8.90324
▁CHICAGO	-8.90516
ow	-8.90518
om	-8.90803
▁Ko	-8.90818
back	-8.9099
▁likely	-8.9112
▁appeal	-8.91255
▁wins	-8.91299
▁evidence	-8.9178
▁series	-8.91782
land	-8.91875
▁taking	-8.91951
▁saying	-8.92043
▁Security	-8.92047
▁13	-8.92151
Q	-8.92153
AN	-8.92169
▁weeks	-8.92516
▁rival	-8.92696
▁Bangladesh	-8.92798
▁site	-8.92868
▁interest	-8.93065
▁score	-8.93104
ty	-8.93198
▁African	-8.93339
▁continue	-8.93469
▁pitch	-8.93868
em	-8.93879
po	-8.93888
▁force	-8.93898
▁drug	-8.93998
▁card	-8.94117
os	-8.94226
▁homes	-8.94276
io	-8.94278
▁short	-8.94333
▁health	-8.94362
▁both	-8.94365
▁First	-8.94419
▁pick	-8.94424
▁list	-8.9449
▁remain	-8.94576
end	-8.9462
▁Deal	-8.94659
ized	-8.94942
▁25	-8.94945
▁Ex	-8.95178
mi	-8.9524
ier	-8.95337
▁store	-8.95542
▁claim	-8.95563
▁match	-8.95646
▁University	-8.95676
▁morning	-8.95677
▁operating	-8.95677
▁When	-8.95677
▁running	-8.95683
▁management	-8.95687
▁agreement	-8.95713
▁50	-8.95844
SP	-8.95851
bo	-8.95968
q	-8.96132
mail	-8.96235
▁Airlines	-8.96245
ence	-8.96479
ice	-8.96932
▁Maoist	-8.9701
▁TOKYO	-8.9701
▁access	-8.9701
▁storm	-8.9701
▁possible	-8.97032
▁size	-8.97084
▁fight	-8.97105
air	-8.97166
▁career	-8.97207
▁sold	-8.97284
▁14	-8.97287
▁range	-8.97364
▁Update	-8.97596
▁increase	-8.97658
ect	-8.97965
▁side	-8.98046
ac	-8.98059
▁provide	-8.98064
▁Pro	-8.98081
▁rebel	-8.98154
▁Price	-8.98184
▁Baghdad	-8.98361
▁wireless	-8.98361
▁scandal	-8.98361
▁nucle	-8.98363
▁Gaza	-8.98365
▁lift	-8.98372
▁blockade	-8.98373
▁charges	-8.9838
▁investigation	-8.98398
▁Back	-8.98442
▁action	-8.98588
▁Williams	-8.98642
▁stand	-8.98663
▁30	-8.98673
▁judge	-8.98703
▁Set	-8.98737
of	-8.98831
▁researchers	-8.99307
▁executive	-8.99543
▁project	-8.99648
▁global	-8.99731
▁performance	-8.99731
▁Hugo	-8.99738
▁straight	-8.99741
▁getting	-8.99807
▁weekend	-8.99816
▁ever	-8.99935
▁Mi	-8.99958
X	-9.00305
▁send	-9.00305
ready	-9.00309
▁Abu	-9.0043
tra	-9.00534
▁aim	-9.00869
▁job	-9.00999
▁dollar	-9.01116
▁Afghan	-9.0112
▁Record	-9.0112
▁challenge	-9.0112
▁hospital	-9.0112
▁silver	-9.0112
▁attempt	-9.0112
▁warned	-9.01126
▁never	-9.01127
ci	-9.01147
▁enter	-9.01159
▁toward	-9.01184
▁Car	-9.01313
▁st	-9.01316
low	-9.01435
▁News	-9.01891
ap	-9.02044
▁air	-9.02079
▁applications	-9.02344
▁net	-9.02429
▁Stock	-9.02485
▁\$3	-9.02489
▁Afghanistan	-9.02528
▁Italian	-9.02529
▁White	-9.02529
▁those	-9.02531
▁digital	-9.02536
▁RealNetwork	-9.02546
ti	-9.0255
▁General	-9.02604
▁El	-9.02607
▁need	-9.02806
▁:	-9.02839
▁come	-9.03121
▁old	-9.03222
▁got	-9.03227
dical	-9.03229
▁Z	-9.0331
one	-9.03417
ated	-9.03546
▁players	-9.0383
▁effect	-9.03924
▁future	-9.03942
▁#151;	-9.03957
Bloomberg	-9.03957
▁California	-9.03957
▁avoid	-9.03957
▁corporate	-9.03961
▁pressure	-9.03972
▁Some	-9.0398
▁cell	-9.0399
unt	-9.04067
son	-9.04109
▁planet	-9.04348
▁union	-9.04351
▁Get	-9.04622
▁wide	-9.04622
▁Tri	-9.04841
ga	-9.04946
men	-9.05085
▁too	-9.05219
▁dead	-9.05226
▁best	-9.05256
▁Burundi	-9.05406
▁single	-9.05453
▁Earth	-9.0546
▁Union	-9.05485
▁began	-9.05514
ni	-9.05608
▁9	-9.05623
▁15	-9.05765
▁claims	-9.05784
▁Se	-9.06079
▁Systems	-9.06499
▁behind	-9.06877
▁agency	-9.06877
▁auction	-9.06877
▁extend	-9.06878
▁better	-9.0688
▁bankruptcy	-9.0688
▁sweep	-9.0688
▁bronze	-9.06881
▁Talk	-9.06881
▁yet	-9.06886
▁presidential	-9.06905
▁Johnson	-9.06921
▁Market	-9.06932
▁Kill	-9.06939
▁Blue	-9.06989
▁product	-9.07002
▁large	-9.07028
▁Indian	-9.07078
▁authorities	-9.07113
round	-9.07151
▁City	-9.07198
ill	-9.07226
▁Ch	-9.07503
▁inning	-9.07555
nual	-9.07572
game	-9.07612
▁slash	-9.07852
ware	-9.08007
▁Ba	-9.08291
GOOG	-9.08369
▁murder	-9.08369
▁revenue	-9.08369
▁chance	-9.08389
▁gave	-9.08439
▁2005	-9.0845
▁Party	-9.08474
▁me	-9.08497
▁jobs	-9.085
▁begin	-9.08526
▁Palestinian	-9.08565
hi	-9.08662
▁rain	-9.08717
off	-9.0875
▁media	-9.08805
ful	-9.08843
▁once	-9.0886
▁sites	-9.08909
▁rest	-9.08921
▁soldiers	-9.09072
▁IT	-9.09222
▁efforts	-9.09263
ists	-9.09679
au	-9.09786
▁lo	-9.09817
▁Chinese	-9.09884
▁Shrine	-9.09884
▁television	-9.09884
▁information	-9.09885
▁Ltd	-9.09888
went	-9.09955
line	-9.1008
▁dis	-9.10163
▁acquire	-9.10173
▁Net	-9.10361
▁chips	-9.10454
IN	-9.10463
▁fund	-9.10463
▁X	-9.10718
▁hopes	-9.10861
▁concerns	-9.10976
▁h	-9.11013
▁call	-9.11059
▁form	-9.11236
▁flu	-9.11423
▁Buy	-9.11425
▁warning	-9.11429
▁Pack	-9.11432
▁Calif	-9.11435
▁marathon	-9.11467
▁food	-9.1148
▁sw	-9.115
▁blow	-9.11551
▁hard	-9.11595
ink	-9.11864
▁State	-9.11873
▁finish	-9.11885
▁thousands	-9.1202
▁failed	-9.12271
▁player	-9.12521
▁Take	-9.12694
▁te	-9.12916
▁bill	-9.12944
▁cent	-9.12972
▁FRANCISCO	-9.12985
▁foreign	-9.12985
▁potential	-9.12991
▁color	-9.12997
sharing	-9.13008
▁Near	-9.13022
▁terror	-9.13077
▁chain	-9.13086
▁Ali	-9.13246
iff	-9.13371
▁analysts	-9.13663
▁medals	-9.1391
▁program	-9.13954
▁cuts	-9.14259
fi	-9.14299
▁22	-9.14343
▁did	-9.14362
▁process	-9.14489
▁All	-9.145
ett	-9.14543
▁football	-9.14573
▁risk	-9.14573
▁SEC	-9.14574
▁Jones	-9.14576
▁journalist	-9.14577
▁Congo	-9.14584
▁human	-9.14586
ley	-9.14589
▁Democratic	-9.14594
▁reject	-9.146
▁carrier	-9.14635
▁summer	-9.14658
▁That	-9.14671
▁Cink	-9.14684
▁host	-9.14718
▁trouble	-9.14856
▁Bay	-9.15028
▁row	-9.15044
▁issue	-9.15101
▁400	-9.15237
▁hope	-9.15419
▁Lo	-9.15493
▁led	-9.1555
fire	-9.15565
our	-9.15691
ward	-9.15799
▁su	-9.15908
min	-9.1597
▁mid	-9.16175
▁Oracle	-9.16186
▁citing	-9.16187
▁create	-9.16193
enior	-9.16195
▁ruling	-9.16196
▁Yahoo	-9.16233
▁cause	-9.16303
▁systems	-9.16327
▁told	-9.16335
▁rule	-9.16365
▁Y	-9.16376
▁Nations	-9.16407
▁later	-9.16481
▁provider	-9.16543
▁seen	-9.1657
▁Venezuelan	-9.16581
▁our	-9.17012
Sports	-9.17017
▁Ra	-9.17285
▁You	-9.17564
▁products	-9.17678
ious	-9.17703
▁Sadr	-9.17823
▁Music	-9.17828
▁question	-9.17849
▁regulators	-9.17851
▁Spain	-9.1787
than	-9.17874
▁mean	-9.17943
▁available	-9.18042
▁ground	-9.18115
▁discovered	-9.18147
▁Day	-9.18227
▁build	-9.18329
▁meet	-9.18377
over	-9.18473
▁businesses	-9.18477
▁effort	-9.18502
▁Hit	-9.18516
▁Can	-9.19101
▁Securit	-9.19141
▁drive	-9.19173
▁land	-9.19397
▁Police	-9.19492
▁Yukos	-9.19492
▁conflict	-9.19492
▁defeat	-9.19493
▁debt	-9.19493
▁worth	-9.195
▁Angeles	-9.19505
▁probe	-9.19575
▁supply	-9.19622
▁stay	-9.19702
▁France	-9.19706
▁rates	-9.19716
▁seem	-9.19722
▁selling	-9.19724
▁change	-9.19759
▁gas	-9.19812
▁drugs	-9.19961
▁Mac	-9.19972
▁Sun	-9.20129
▁lose	-9.20265
▁fears	-9.20284
▁cr	-9.2031
came	-9.20389
mon	-9.20431
ang	-9.20542
▁meeting	-9.20665
▁cons	-9.20734
▁Me	-9.20812
▁heart	-9.2095
▁Ka	-9.20985
▁Na	-9.21051
▁Tokyo	-9.21187
▁individual	-9.21187
▁study	-9.21187
▁Online	-9.21207
▁must	-9.21231
▁advance	-9.21276
▁development	-9.21293
he	-9.21327
ging	-9.21416
▁24	-9.21446
▁Higher	-9.21674
▁deliver	-9.21805
do	-9.2184
▁my	-9.21917
▁di	-9.22078
strong	-9.22102
▁sport	-9.22149
▁hundreds	-9.2216
▁Rise	-9.22168
▁Time	-9.22353
▁sent	-9.22636
Xinhua	-9.22911
▁Gatlin	-9.22911
▁Singapore	-9.22911
▁Typhoon	-9.22911
▁soccer	-9.22911
▁equipment	-9.22914
▁broadband	-9.22927
▁Will	-9.23057
▁Un	-9.23086
▁main	-9.23093
da	-9.23117
▁inflation	-9.23284
ACE	-9.23313
▁injured	-9.23346
port	-9.23499
▁continued	-9.23593
red	-9.23682
▁tie	-9.23983
▁runs	-9.2404
GA	-9.24119
▁amo	-9.24272
ile	-9.24286
▁minutes	-9.24375
▁know	-9.24434
▁withdraw	-9.24464
▁Sha	-9.24521
▁heat	-9.24549
▁office	-9.24557
▁gains	-9.24567
CP	-9.2462
NewsFactor	-9.24665
▁Software	-9.24665
▁referendum	-9.24665
▁picture	-9.24665
▁Wireless	-9.24665
▁David	-9.24665
▁Motorola	-9.24667
▁walk	-9.24667
▁employees	-9.24694
▁Bill	-9.24707
▁Business	-9.24745
▁upgrade	-9.24751
▁21	-9.2492
▁overtime	-9.24944
MS	-9.24952
▁soar	-9.2505
▁Now	-9.25266
▁pilots	-9.25267
amo	-9.25297
▁ch	-9.25436
▁sale	-9.25745
rude	-9.25911
▁count	-9.25914
bi	-9.26018
▁Bomb	-9.26433
▁euro	-9.26444
▁THE	-9.26451
▁Karzai	-9.26451
▁pool	-9.26451
▁Ariel	-9.26451
▁popular	-9.26453
▁check	-9.26453
▁intelligence	-9.26473
ake	-9.26478
▁replace	-9.26481
▁Space	-9.26489
▁Holdings	-9.26491
▁tell	-9.2654
go	-9.26609
▁alleged	-9.26617
▁fac	-9.26694
▁Miss	-9.26751
▁Networks	-9.26759
▁developer	-9.26961
ness	-9.26994
▁manager	-9.27098
▁came	-9.2729
post	-9.27532
▁complete	-9.28008
▁Down	-9.28116
▁stop	-9.28163
▁markets	-9.2818
!	-9.28269
▁Ghraib	-9.28269
▁Kathmandu	-9.28269
▁Attack	-9.28269
▁tennis	-9.28269
▁Center	-9.28271
▁outside	-9.28385
▁school	-9.28621
▁accept	-9.29004
fa	-9.29018
▁unti	-9.29037
uck	-9.29239
▁offers	-9.29274
Update	-9.29311
▁tri	-9.29396
▁abo	-9.29585
▁ready	-9.29657
▁Ha	-9.29666
ese	-9.29836
▁missing	-9.30084
#	-9.3012
▁Abbey	-9.30121
▁Vietnam	-9.30121
▁Financi	-9.30121
▁enough	-9.30124
▁block	-9.30126
▁Italy	-9.30126
▁freestyle	-9.30135
▁dropped	-9.30137
▁children	-9.30175
▁each	-9.30178
▁Data	-9.30185
cu	-9.30284
ack	-9.30286
0,000	-9.30379
▁l	-9.30482
▁island	-9.30555
▁Tom	-9.30866
▁growing	-9.3095
▁Te	-9.30967
ump	-9.31139
▁Dis	-9.31273
ade	-9.31394
around	-9.31411
▁agree	-9.315
▁town	-9.31521
▁believe	-9.31594
NEC	-9.31727
ical	-9.31916
▁Foreign	-9.32008
▁Advance	-9.32008
▁NFL	-9.32008
▁current	-9.32008
▁expand	-9.32008
▁operator	-9.32008
▁Three	-9.32008
▁prime	-9.32008
▁doping	-9.32012
▁Scientist	-9.32021
▁struck	-9.32029
▁working	-9.32037
▁stake	-9.32043
▁focus	-9.3214
▁source	-9.32154
▁let	-9.32183
rising	-9.32246
bn	-9.3231
side	-9.32469
▁n	-9.32497
▁gun	-9.32562
▁spending	-9.32563
▁Hu	-9.3259
▁Ad	-9.32625
▁don	-9.32633
nd	-9.32715
ung	-9.32948
ner	-9.32952
▁100-	-9.33089
▁raised	-9.33101
Z	-9.33107
▁problems	-9.33164
▁suspects	-9.3328
▁Fed	-9.33341
▁ba	-9.33399
▁plane	-9.33528
▁prison	-9.33529
▁USA	-9.33648
▁#36;	-9.33827
hu	-9.33919
▁Communications	-9.33931
▁Fischer	-9.33931
▁acquisition	-9.33931
▁administration	-9.33931
▁include	-9.33931
▁Depot	-9.33931
▁dream	-9.33931
▁outlook	-9.33931
▁copyright	-9.33931
espite	-9.33939
▁western	-9.3394
▁June	-9.33945
▁batteries	-9.33951
▁Growth	-9.33952
▁Four	-9.34062
▁Sa	-9.34072
▁mission	-9.34213
▁students	-9.34504
▁these	-9.34601
▁m	-9.34636
rial	-9.34639
▁Giants	-9.34769
ka	-9.34827
▁ho	-9.34885
▁sports	-9.34919
week	-9.35085
▁Justin	-9.35096
ef	-9.35359
amp	-9.35367
▁Con	-9.3537
ck	-9.35374
▁link	-9.35518
▁talk	-9.35544
▁Fla	-9.35678
▁Radcliffe	-9.35892
▁Thorpe	-9.35892
▁giving	-9.35892
▁iPod	-9.35892
▁Dutch	-9.35892
▁staff	-9.35895
▁Muq	-9.35898
▁planned	-9.35903
▁Labor	-9.35913
▁tech	-9.35957
▁comes	-9.35965
▁networks	-9.35966
LOS	-9.35986
▁edge	-9.35999
▁personal	-9.36006
▁Ry	-9.36023
▁Da	-9.36324
▁Call	-9.36402
▁estimates	-9.36479
▁didn	-9.3673
.6	-9.36749
▁quit	-9.36759
▁fail	-9.36782
ities	-9.3681
ship	-9.36811
les	-9.36845
hold	-9.36907
▁taken	-9.37046
▁terrorist	-9.37594
ger	-9.37639
▁Asia	-9.37726
▁cha	-9.37772
▁i	-9.37829
▁v	-9.37878
▁conference	-9.37891
▁Power	-9.37893
▁lawsuit	-9.37894
▁strain	-9.37895
▁blast	-9.37899
▁Jew	-9.379
▁Women	-9.37907
▁hearing	-9.37908
▁Drug	-9.37926
▁flights	-9.38018
bit	-9.38364
▁sources	-9.38463
uc	-9.38552
▁surviv	-9.38598
▁real	-9.38902
OR	-9.3894
LE	-9.38987
▁kill	-9.39096
awaited	-9.39103
▁rate	-9.39154
▁broke	-9.39172
rd	-9.39218
▁Di	-9.3923
▁Su	-9.39317
▁calls	-9.39518
ong	-9.3983
▁virus	-9.39848
type	-9.39879
▁Cut	-9.39921
▁ANGELES	-9.39932
▁Central	-9.39932
▁Halliburton	-9.39932
▁Stadium	-9.39932
▁climb	-9.39932
▁struggle	-9.39932
▁DVD	-9.39932
▁Cubs	-9.39941
▁turned	-9.39954
▁law	-9.39956
▁Sony	-9.39967
▁medical	-9.39988
kept	-9.39997
iscal	-9.40049
▁Philippines	-9.40062
▁Big	-9.40154
▁young	-9.40173
▁web	-9.40263
▁statement	-9.40306
▁published	-9.40308
▁press	-9.40383
▁speed	-9.40422
▁hits	-9.40435
ept	-9.40469
▁stores	-9.405
▁confirmed	-9.4056
▁advanced	-9.40595
▁Bobb	-9.40655
ank	-9.40684
tor	-9.40739
tica	-9.40751
ING	-9.40782
▁sea	-9.41409
ash	-9.41525
▁Cost	-9.41562
▁athletes	-9.41578
▁Stores	-9.41674
down	-9.4178
▁read	-9.4189
▁\$50	-9.41901
▁travel	-9.41909
▁success	-9.41917
▁plant	-9.41988
▁heavy	-9.42015
▁BAGHDAD	-9.42016
▁Consumer	-9.42016
▁illegal	-9.42016
▁Dollar	-9.42016
▁dozen	-9.42016
▁spokesman	-9.42016
▁standard	-9.42016
▁Help	-9.42017
▁poor	-9.42017
▁saw	-9.42019
▁central	-9.42024
▁further	-9.42026
▁worm	-9.42034
▁reached	-9.42176
▁They	-9.4218
▁sharply	-9.42184
mer	-9.42194
▁r	-9.42239
helve	-9.4227
▁point	-9.42295
▁prove	-9.42299
▁received	-9.42342
30	-9.42415
▁Test	-9.42526
▁league	-9.42563
▁ruled	-9.42623
ize	-9.42877
▁cl	-9.42927
▁Plu	-9.43023
▁Off	-9.43038
gu	-9.43281
▁opening	-9.43374
ech	-9.43707
ft	-9.4384
▁Per	-9.43868
▁charge	-9.43877
▁Malaysia	-9.43906
▁sprinters	-9.4394
▁Park	-9.44029
▁Sprint	-9.44038
ecutive	-9.4411
▁spot	-9.44115
▁JERUSALEM	-9.44143
▁Reserve	-9.44143
▁Second	-9.44143
▁Spanish	-9.44143
▁enterprise	-9.44143
▁survey	-9.44143
▁hurt	-9.44144
▁dispute	-9.44145
▁local	-9.44153
▁fans	-9.44168
ja	-9.44169
▁book	-9.442
▁members	-9.44351
▁homer	-9.44402
▁thought	-9.44415
▁server	-9.44503
▁suspected	-9.44503
▁closer	-9.44705
▁goal	-9.44751
for	-9.44958
▁arm	-9.44982
bes	-9.45016
▁act	-9.45157
lie	-9.45422
high	-9.4551
▁profits	-9.45597
▁along	-9.45603
par	-9.45761
ath	-9.45796
▁building	-9.45807
▁tool	-9.45955
▁Palestinians	-9.46032
▁See	-9.46041
ah	-9.46294
▁lay	-9.46314
▁Francisco	-9.46317
▁George	-9.46317
▁Invitational	-9.46317
▁PowerBook	-9.46317
▁baseball	-9.46317
▁chairman	-9.46317
▁desktop	-9.46317
▁family	-9.46317
▁wrong	-9.46317
▁Boeing	-9.46317
▁Global	-9.46317
▁crowd	-9.46317
▁fifth	-9.46317
▁Edwards	-9.46318
▁Imam	-9.46318
▁Championship	-9.4632
▁Are	-9.46333
▁Million	-9.46341
▁protect	-9.46345
▁camera	-9.46358
dana	-9.46367
▁Bl	-9.46578
▁Sh	-9.46595
AS	-9.4662
▁Server	-9.46742
▁ran	-9.46755
▁firms	-9.46833
▁Men	-9.46834
▁every	-9.46874
▁bad	-9.46899
▁given	-9.46935
erson	-9.4695
▁raise	-9.47193
▁coming	-9.47218
lor	-9.47616
▁gain	-9.47676
▁Face	-9.4787
▁Th	-9.48136
66666	-9.48539
="-2"	-9.48539
▁Gateway	-9.48539
▁private	-9.48539
▁Hewitt	-9.4854
▁What	-9.4854
▁relay	-9.4854
▁Search	-9.48541
▁\$85	-9.48557
▁think	-9.48572
▁figures	-9.48581
▁Major	-9.48586
▁VoIP	-9.48604
▁Republican	-9.48605
▁pass	-9.4868
▁view	-9.48689
▁Judge	-9.48721
▁approved	-9.48721
erif	-9.48724
▁suspended	-9.48751
▁Mobile	-9.48751
▁Fall	-9.48861
▁sh	-9.48931
▁Hold	-9.48948
▁ancient	-9.4901
source	-9.49107
lat	-9.49219
▁bar	-9.49222
▁board	-9.49321
,"	-9.49408
▁Its	-9.4941
cc	-9.49448
cent	-9.49587
▁based	-9.49712
▁others	-9.4988
▁Form	-9.4994
▁Free	-9.49957
ress	-9.5008
▁br	-9.5008
ins	-9.50208
ments	-9.50425
▁0.	-9.50515
outhern	-9.50529
ism	-9.5072
▁camp	-9.50744
▁credit	-9.50794
▁Atlanta	-9.50812
▁woman	-9.50812
▁Micro	-9.50813
▁serious	-9.50813
▁reason	-9.50814
▁Fund	-9.50814
▁Saturn	-9.50816
▁Secretary	-9.50816
▁Blast	-9.50845
▁Sudanese	-9.50845
▁suggest	-9.50866
▁historic	-9.50879
▁blood	-9.50898
▁bl	-9.50926
▁production	-9.50957
maker	-9.50997
ook	-9.51012
▁application	-9.51111
▁result	-9.5112
▁Asian	-9.51179
▁threatened	-9.51186
cat	-9.5128
▁recently	-9.51294
▁soon	-9.5133
▁highs	-9.51364
▁unveiled	-9.51488
▁Ta	-9.51497
▁sc	-9.51607
▁ski	-9.51634
coming	-9.51639
rate	-9.51919
.7	-9.52018
ari	-9.52034
▁crash	-9.52042
board	-9.52307
Canadian	-9.52329
▁semifinals	-9.52444
▁issues	-9.52467
rought	-9.52765
▁Po	-9.52821
SE	-9.52861
▁Work	-9.53051
▁features	-9.53075
▁consumers	-9.53137
▁Kenteris	-9.53138
▁Ossetia	-9.53138
▁having	-9.53138
▁discuss	-9.53139
▁East	-9.5314
▁planning	-9.5315
▁Cuba	-9.53151
▁Nik	-9.53179
▁Still	-9.53189
▁Spe	-9.53209
paid	-9.53244
▁Kong	-9.53249
▁Drop	-9.53295
▁improve	-9.53301
▁proposal	-9.53329
▁bombing	-9.5336
▁Mar	-9.53442
▁par	-9.53528
▁decided	-9.53615
▁Game	-9.53769
lan	-9.5389
▁Lower	-9.53907
▁appeals	-9.54116
ON	-9.54208
▁experts	-9.54264
▁computers	-9.54609
▁Mc	-9.54654
▁Chip	-9.54715
though	-9.5475
▁died	-9.54955
▁Services	-9.55065
▁ga	-9.55073
▁Arm	-9.55259
▁propos	-9.55299
▁There	-9.55317
▁innings	-9.55328
ise	-9.55396
▁announce	-9.55409
cy	-9.55453
▁Toronto	-9.55519
▁Dodgers	-9.55519
▁defense	-9.55519
▁disease	-9.55519
▁explosion	-9.55519
▁Peace	-9.55519
▁Study	-9.55519
▁Case	-9.55525
▁Rouse	-9.55527
▁Find	-9.55528
▁Singh	-9.55532
▁fraud	-9.55542
▁Whil	-9.55542
▁club	-9.55543
▁deep	-9.55545
▁investment	-9.55545
▁6-4	-9.5555
▁Medal	-9.55553
▁successful	-9.55555
▁Li	-9.55568
▁Carter	-9.55598
▁pair	-9.55624
dy	-9.55626
▁points	-9.55663
▁injury	-9.55716
▁Georgian	-9.55724
▁session	-9.55728
▁value	-9.55749
▁image	-9.56032
▁customer	-9.56177
▁3-	-9.56258
ber	-9.56321
▁Pakistani	-9.56366
▁rivals	-9.56413
▁settlements	-9.56667
ever	-9.56815
stone	-9.5687
▁beating	-9.57006
via	-9.57065
▁ban	-9.57111
▁port	-9.57122
ham	-9.57234
wn	-9.57237
form	-9.57376
."	-9.57434
▁40	-9.57538
▁ten	-9.57577
▁base	-9.57776
br	-9.57916
▁Committee	-9.57958
▁London	-9.57958
▁Stewart	-9.57958
▁damage	-9.57958
▁religio	-9.57958
▁ticket	-9.57958
▁Amazon	-9.57958
▁Eight	-9.57958
▁Twins	-9.57958
▁course	-9.57958
▁worries	-9.57959
▁Davis	-9.57959
▁huge	-9.57963
▁display	-9.57965
▁Vote	-9.57972
▁Mets	-9.57994
▁Week	-9.58049
▁general	-9.58073
▁banks	-9.58082
▁panel	-9.5809
▁Last	-9.58119
▁Beat	-9.58169
▁wave	-9.58201
▁sixth	-9.58224
▁brand	-9.58236
own	-9.58275
▁below	-9.58295
▁finance	-9.58296
▁total	-9.58329
▁watch	-9.5834
▁care	-9.58347
▁deadly	-9.58364
▁hot	-9.58393
▁threat	-9.58501
ele	-9.58538
▁du	-9.58559
▁consider	-9.58569
▁Vi	-9.58942
▁IM	-9.58953
▁accounting	-9.58986
▁met	-9.59026
olar	-9.59141
▁Trade	-9.59261
▁train	-9.593
▁opened	-9.59331
▁miles	-9.59368
.\\	-9.59374
▁Toy	-9.5939
▁area	-9.5979
▁funds	-9.60024
▁engineer	-9.60056
▁concern	-9.60078
▁inside	-9.60126
▁blue	-9.60457
NYSE	-9.60458
▁Electronic	-9.60458
▁Technology	-9.60458
▁approval	-9.60458
▁policy	-9.60458
▁drove	-9.60458
▁guard	-9.60458
▁Guant	-9.60458
▁swimming	-9.60458
Cube	-9.60458
▁Royal	-9.60459
▁road	-9.6046
▁impact	-9.60466
▁black	-9.60468
▁House	-9.6047
▁nine	-9.60489
▁matter	-9.60513
▁itself	-9.60523
▁losing	-9.6054
▁ARM	-9.60552
▁station	-9.60639
fic	-9.60653
▁delays	-9.60654
▁robot	-9.60717
gan	-9.60856
long	-9.60862
▁upset	-9.60944
▁Or	-9.60958
▁Start	-9.61024
▁Korean	-9.61243
▁changed	-9.61263
▁PM	-9.61372
▁j	-9.6138
▁IP	-9.61539
ei	-9.61579
▁How	-9.61792
inch	-9.61837
ries	-9.61877
half	-9.62245
▁live	-9.62525
▁certain	-9.62714
▁holding	-9.62872
term	-9.62904
▁groups	-9.62996
▁Health	-9.63021
▁Arafat	-9.63022
▁ISLAMABAD	-9.63022
▁Islamic	-9.63022
▁Santander	-9.63022
▁advertising	-9.63022
▁criminal	-9.63022
▁helicopter	-9.63022
▁telephone	-9.63022
▁Forecast	-9.63022
▁assault	-9.63022
▁jail	-9.63022
▁expectations	-9.63026
▁division	-9.63034
▁conditions	-9.63034
▁semi	-9.63037
▁Blair	-9.63038
▁catch	-9.6304
▁futures	-9.63049
▁CA	-9.63062
▁takeover	-9.6309
▁aid	-9.63119
▁Coul	-9.63202
▁Gra	-9.63205
▁terrorism	-9.63215
▁fighters	-9.6322
▁Bar	-9.63255
▁Cuts	-9.63299
▁executives	-9.63402
▁Look	-9.63403
▁Angels	-9.63555
▁reduce	-9.63625
▁goes	-9.63666
ory	-9.63715
▁done	-9.63717
▁delayed	-9.63891
▁Q	-9.63928
▁Make	-9.63933
ron	-9.64261
▁positi	-9.64276
cal	-9.64369
▁red	-9.64563
▁longer	-9.64584
▁Pe	-9.64715
▁imp	-9.64858
US	-9.64941
month	-9.64964
▁ease	-9.65196
For	-9.65203
▁remained	-9.65216
yn	-9.65368
▁Nigeria	-9.65418
RI	-9.65522
▁Found	-9.65609
▁micro	-9.65652
▁BEIJING	-9.65653
▁Beijing	-9.65653
▁Berlusconi	-9.65653
▁Qantas	-9.65653
▁flood	-9.65653
▁passenger	-9.65653
▁Amateur	-9.65654
▁Ohio	-9.65654
▁Delay	-9.65654
▁draw	-9.65654
▁period	-9.65655
▁Netscape	-9.65657
▁Close	-9.6566
▁request	-9.65664
▁championship	-9.65689
▁Association	-9.65697
▁4-	-9.65713
▁Bond	-9.6575
▁winner	-9.65755
▁AMD	-9.65756
ray	-9.65787
▁save	-9.65821
va	-9.65834
▁stage	-9.65843
▁special	-9.65945
▁abuse	-9.65993
NT	-9.66207
▁Law	-9.66246
by	-9.66309
▁average	-9.66341
EN	-9.66346
▁wounded	-9.66528
▁surged	-9.66544
RE	-9.66569
▁promise	-9.6661
▁problem	-9.66716
▁started	-9.66734
▁leav	-9.66937
▁homered	-9.67103
▁changes	-9.67189
▁content	-9.67198
IT	-9.6752
▁finished	-9.67546
▁Has	-9.67588
▁stars	-9.67697
▁PCs	-9.6774
▁AL	-9.6785
▁rights	-9.67857
▁Woods	-9.68165
▁en	-9.68183
season	-9.68217
drew	-9.68344
▁multi	-9.68354
▁increasing	-9.68356
▁Brief	-9.68356
▁Zealand	-9.68356
▁college	-9.68356
▁discount	-9.68356
▁machine	-9.68356
▁shift	-9.68357
▁refus	-9.68357
▁coast	-9.68357
▁loyal	-9.68357
▁common	-9.68357
▁interview	-9.68359
▁newspaper	-9.68363
Hare	-9.68369
▁Pope	-9.68377
▁failure	-9.68383
▁screen	-9.68403
▁award	-9.68404
act	-9.68407
▁BHP	-9.68421
▁1,000	-9.68439
▁carry	-9.68445
▁village	-9.68462
▁front	-9.6857
lashes	-9.68583
▁rock	-9.68628
▁Bid	-9.68639
▁refugees	-9.68662
▁Move	-9.68684
▁Force	-9.68687
media	-9.68703
▁Researchers	-9.6871
▁Militants	-9.68919
▁ball	-9.6894
aid	-9.69159
ez	-9.69194
▁involv	-9.69537
▁Give	-9.69784
▁Rises	-9.6985
▁q	-9.69955
▁account	-9.69973
▁signs	-9.70035
Nasdaq	-9.70318
▁Dan	-9.7032
▁programs	-9.70357
▁Just	-9.70358
▁bre	-9.70373
▁son	-9.70416
▁\	-9.70539
▁sta	-9.70697
▁Green	-9.70758
▁Georgia	-9.70913
▁plot	-9.7099
ped	-9.71068
▁Brazil	-9.71104
▁wild	-9.71133
▁Before	-9.71134
▁Chief	-9.71134
▁Classic	-9.71134
▁UPDATE	-9.71134
▁familiar	-9.71134
▁grenade	-9.71134
▁ninth	-9.71134
▁Claim	-9.71134
▁observ	-9.71134
▁disarm	-9.71134
▁weather	-9.71135
▁pledge	-9.71135
▁housing	-9.71135
▁poll	-9.71136
▁prompt	-9.71137
▁alert	-9.71148
▁Hollywood	-9.71148
▁Suspect	-9.71148
▁tough	-9.71151
▁Golf	-9.71154
▁hunt	-9.71158
▁labor	-9.71159
▁filing	-9.71177
▁code	-9.71194
▁patch	-9.71198
▁Good	-9.71218
▁Putin	-9.71223
▁director	-9.71246
▁protection	-9.71248
▁clashes	-9.71253
row	-9.71261
▁2003	-9.71269
▁roundup	-9.71282
▁Life	-9.71285
▁\$5	-9.71288
▁flat	-9.71301
MW	-9.71308
▁Rebels	-9.71322
▁Sign	-9.71332
mate	-9.71436
▁positions	-9.71451
▁box	-9.7147
▁aircraft	-9.71489
▁body	-9.71616
▁Five	-9.71619
▁showing	-9.71649
▁Fighting	-9.71681
▁Sell	-9.71705
▁though	-9.71739
▁Lead	-9.71771
▁Nasdaq	-9.71957
▁Summ	-9.72108
gged	-9.72185
pped	-9.72197
▁devices	-9.72351
▁fear	-9.72642
▁Leads	-9.72644
▁Du	-9.72646
▁wait	-9.72853
▁Op	-9.72859
▁urg	-9.73049
▁Pre	-9.73106
▁gra	-9.73139
ability	-9.73161
mark	-9.73183
▁witnesse	-9.73203
expected	-9.7321
▁15-	-9.73257
▁Ben	-9.73406
▁times	-9.73615
▁fle	-9.73625
Ex	-9.73828
ya	-9.73834
▁Act	-9.73873
▁super	-9.73874
▁collect	-9.739
▁urge	-9.73919
arry	-9.7394
roadband	-9.73967
▁DoCoMo	-9.73991
▁Gartner	-9.73991
▁Government	-9.73991
▁Muslim	-9.73991
▁bargain	-9.73991
▁coalition	-9.73991
▁satellite	-9.73991
▁supplies	-9.73991
▁Engine	-9.73991
▁twice	-9.73991
▁Vonage	-9.73991
▁Food	-9.73991
▁adopt	-9.73992
▁gear	-9.73995
▁mortgage	-9.73995
▁negotiations	-9.73996
▁Investors	-9.73997
nivers	-9.73997
▁holiday	-9.74
▁halt	-9.74003
▁lack	-9.74006
▁Return	-9.74007
▁Warner	-9.74014
▁Great	-9.74018
▁\$47	-9.74026
▁Citigroup	-9.74027
▁Motor	-9.7404
▁cool	-9.74048
▁reform	-9.74056
▁Probe	-9.74096
▁Line	-9.74132
▁File	-9.74206
▁doesn	-9.74218
▁spread	-9.74289
▁dollars	-9.74296
▁Art	-9.74359
▁spam	-9.74368
▁His	-9.744
▁rare	-9.74454
▁beach	-9.74473
▁eased	-9.74497
50	-9.74555
▁losses	-9.74591
construction	-9.74612
▁idea	-9.74631
▁lot	-9.74666
▁Qaeda	-9.74719
▁known	-9.74914
▁increased	-9.7498
▁mis	-9.752
▁managers	-9.75207
tar	-9.75275
10	-9.75498
CE	-9.7553
▁exports	-9.75545
▁settlement	-9.75561
▁soldier	-9.75582
▁leg	-9.75589
▁prepare	-9.75604
light	-9.75726
▁defend	-9.75778
og	-9.75787
ou	-9.75995
fall	-9.76291
2)	-9.76602
▁sharp	-9.76695
iko	-9.76743
▁isn	-9.76745
▁Sw	-9.76856
▁recover	-9.76875
▁Baseball	-9.76932
▁Minnesota	-9.76932
▁October	-9.76932
▁Playboy	-9.76932
▁TORONTO	-9.76932
▁express	-9.76932
▁monitor	-9.76932
▁Braves	-9.76932
▁Capital	-9.76932
▁Dallas	-9.76932
▁Kmart	-9.76932
▁Premier	-9.76932
▁Munch	-9.76932
▁Club	-9.76933
▁renew	-9.76933
▁CEO	-9.76934
▁Company	-9.76936
▁role	-9.76937
yard	-9.76937
▁grand	-9.76943
▁Grand	-9.76945
▁Steve	-9.76952
▁vow	-9.76953
CBS	-9.76961
▁Wrap	-9.76962
▁overnight	-9.76999
▁Macro	-9.77015
▁wanted	-9.77041
▁servers	-9.77077
▁militiamen	-9.77077
▁needs	-9.77083
▁Office	-9.77089
▁AOL	-9.77118
ches	-9.77151
▁uprising	-9.77151
▁previously	-9.77181
▁rais	-9.77227
han	-9.77233
▁Dell	-9.77278
▁cross	-9.77346
▁sure	-9.77491
▁decline	-9.77524
▁does	-9.77532
▁house	-9.77614
▁tr	-9.77681
▁fine	-9.77857
▁continues	-9.77991
rop	-9.78102
▁#36;1	-9.78121
▁returned	-9.78212
py	-9.78243
▁forward	-9.78245
▁class	-9.78281
▁aide	-9.78318
▁falling	-9.78322
11	-9.78341
▁Play	-9.78451
▁device	-9.7865
ov	-9.7869
▁\$7	-9.78693
DE	-9.7871
ina	-9.78808
▁predict	-9.78845
▁closed	-9.78987
▁level	-9.7899
mir	-9.79086
▁cents	-9.79216
▁10-	-9.7932
▁claimed	-9.79435
▁partners	-9.79615
▁Ed	-9.79654
▁bi	-9.79674
ria	-9.79688
▁caus	-9.79744
▁Che	-9.79824
▁She	-9.7983
▁Artisan	-9.79963
▁Cassini	-9.79963
▁Defense	-9.79963
▁Field	-9.79963
▁Outlook	-9.79963
▁learn	-9.79963
▁preliminary	-9.79963
▁virtual	-9.79963
▁Houston	-9.79963
▁Recall	-9.79963
▁secure	-9.79963
▁Straw	-9.79963
▁Gymnastics	-9.79963
▁Federer	-9.79964
▁pension	-9.79964
▁Thanou	-9.79964
▁captain	-9.79965
▁hoping	-9.79965
▁activity	-9.79966
▁white	-9.79971
▁Jets	-9.79975
▁expansion	-9.79976
▁very	-9.79978
▁Jackson	-9.79979
▁fierce	-9.79981
▁spacecraft	-9.79982
▁Edge	-9.79983
▁Roger	-9.79987
▁wall	-9.79988
▁tests	-9.79998
▁powerful	-9.80006
▁6-3	-9.80008
▁teenager	-9.80015
▁traffic	-9.80051
▁Show	-9.8006
ral	-9.80118
▁offered	-9.80155
▁cable	-9.80159
▁Fire	-9.80175
▁Sept	-9.802
▁OK	-9.80207
▁bombs	-9.80288
▁recovery	-9.80329
lett	-9.80375
▁bit	-9.80439
▁Pay	-9.80459
TON	-9.80522
▁driver	-9.80569
▁ru	-9.80603
▁shooting	-9.80706
▁ches	-9.80709
DA	-9.80782
▁def	-9.80801
▁reporting	-9.80862
cur	-9.8097
rry	-9.80979
ants	-9.81067
ending	-9.81087
van	-9.81119
▁bus	-9.8172
▁practice	-9.81846
field	-9.82152
AC	-9.82218
EL	-9.82255
▁Mil	-9.82295
ium	-9.8234
▁radio	-9.82458
▁then	-9.82515
▁songs	-9.82586
ain	-9.82594
oli	-9.82634
ID	-9.82755
▁connect	-9.82998
ject	-9.83011
▁term	-9.83074
▁Ministry	-9.83088
▁Patterson	-9.83088
▁Seattle	-9.83088
▁Semiconductor	-9.83088
▁knock	-9.83088
▁semiconductor	-9.83088
▁volleyball	-9.83088
▁Release	-9.83088
▁massive	-9.83088
▁Appeal	-9.83088
▁spark	-9.83088
▁stripped	-9.8309
▁industrial	-9.8309
▁commercial	-9.8309
▁residents	-9.83091
▁Percent	-9.83099
▁review	-9.83102
▁\$49	-9.83106
▁Robert	-9.83124
▁Mike	-9.83143
▁Seek	-9.83183
▁We	-9.83186
▁Rock	-9.83193
▁fix	-9.83198
▁truck	-9.83209
ied	-9.8332
▁Sen	-9.83341
▁Jack	-9.83361
▁page	-9.83376
▁Quarter	-9.83414
ility	-9.8345
▁Gov	-9.83451
▁setting	-9.8351
uit	-9.83512
▁weapons	-9.83596
▁Offer	-9.83599
▁NL	-9.8361
▁Gain	-9.83821
▁pitcher	-9.84297
ai	-9.84332
▁levels	-9.84468
▁31	-9.84478
▁prepar	-9.84486
▁Col	-9.8454
▁training	-9.84573
200	-9.8465
▁Sea	-9.84682
▁sun	-9.84752
▁Inter	-9.84927
▁testing	-9.85055
▁grow	-9.85237
BC	-9.85242
▁Jo	-9.85375
▁prisoners	-9.8545
finals	-9.85477
Qaeda	-9.85497
(	-9.855
ond	-9.8567
ashington	-9.85785
▁investigat	-9.85922
oc	-9.86126
▁Indians	-9.86126
▁suit	-9.8613
▁Republic	-9.86224
▁connections	-9.86242
▁makers	-9.86273
▁Virgin	-9.86291
▁Athletics	-9.86313
▁Montreal	-9.86313
▁September	-9.86313
▁browser	-9.86313
▁candidate	-9.86313
▁mistake	-9.86313
▁response	-9.86313
▁Astros	-9.86313
▁science	-9.86313
▁tackle	-9.86313
▁Phone	-9.86314
▁CRM	-9.86314
▁shopping	-9.86314
▁afternoon	-9.86314
▁Arsen	-9.86314
▁Turn	-9.86316
▁Hamas	-9.86316
▁revered	-9.86316
▁feet	-9.86317
▁Diego	-9.8632
▁Devers	-9.86321
▁something	-9.86323
▁Debut	-9.86323
▁countries	-9.86326
▁easing	-9.86335
▁model	-9.86342
▁metres	-9.86343
▁Airport	-9.86347
▁surgery	-9.86355
▁Hami	-9.86368
▁green	-9.86369
▁quarterback	-9.86377
▁pack	-9.86391
▁Aere	-9.86392
▁Terror	-9.86411
▁issu	-9.86451
▁stem	-9.8646
▁pace	-9.86502
▁NY	-9.86566
▁27	-9.86613
▁Tour	-9.86745
▁shipp	-9.86763
▁producer	-9.86813
▁investor	-9.86877
▁My	-9.87088
▁Cz	-9.87102
▁interi	-9.87174
▁Of	-9.87176
GP	-9.87198
▁operations	-9.8729
▁defending	-9.87619
▁fired	-9.87635
gainst	-9.87691
▁wind	-9.87692
▁faces	-9.8785
AM	-9.88025
▁Sch	-9.88303
▁Dur	-9.88363
▁highly	-9.88386
▁events	-9.88435
qua	-9.88588
▁vendor	-9.88614
IA	-9.88624
▁wound	-9.88643
▁operation	-9.88647
▁compete	-9.88666
▁extra	-9.887
under	-9.88976
place	-9.88978
▁Late	-9.89052
▁vot	-9.8909
▁commission	-9.89208
get	-9.89216
▁28	-9.89281
ff	-9.89358
▁previous	-9.89407
▁200-	-9.89409
90	-9.89429
ified	-9.89569
▁install	-9.8958
▁moment	-9.89625
▁person	-9.89639
▁gymnast	-9.89644
▁Philadelphia	-9.89647
▁delegation	-9.89647
▁magazine	-9.89647
▁pursuit	-9.89647
▁relief	-9.89647
▁separatist	-9.89647
▁surprise	-9.89647
▁why	-9.89647
▁narrow	-9.89647
▁progress	-9.89647
▁#146;	-9.89647
▁Agree	-9.89647
▁Soldier	-9.89647
cycle	-9.89647
▁agencies	-9.89647
▁medley	-9.89647
▁film	-9.89647
Madden	-9.89648
▁Delta	-9.89648
▁Expos	-9.89648
▁kick	-9.89648
▁internet	-9.89649
▁Moore	-9.89649
▁approach	-9.89651
▁museum	-9.89652
▁boss	-9.89655
▁resume	-9.89655
▁Rangers	-9.89657
▁nationwide	-9.89666
▁attend	-9.8967
▁bond	-9.89675
▁prospect	-9.89678
▁handset	-9.89691
▁Chart	-9.89691
▁\$200	-9.89693
▁species	-9.89694
▁hotel	-9.89699
▁Mozilla	-9.89717
▁options	-9.89728
▁spent	-9.89729
▁Tony	-9.89741
▁Long	-9.89756
▁Today	-9.89761
▁Dream	-9.89773
▁seiz	-9.89795
▁Andre	-9.89824
▁table	-9.89845
▁tear	-9.89879
away	-9.89884
▁tools	-9.8993
▁EU	-9.90072
▁Mass	-9.9012
▁room	-9.90134
▁Past	-9.90136
▁March	-9.9018
lash	-9.90185
▁areas	-9.90188
ney	-9.903
▁pop	-9.90312
▁Ami	-9.90313
▁ship	-9.9036
▁II	-9.90587
▁wine	-9.90762
▁List	-9.90767
que	-9.90966
range	-9.90974
ble	-9.90996
▁completed	-9.91212
▁armed	-9.91261
▁bann	-9.91353
▁min	-9.91369
▁ending	-9.91419
hand	-9.91448
▁Let	-9.91535
▁Put	-9.91546
my	-9.91593
state	-9.91708
▁ring	-9.9186
▁Leg	-9.91897
▁benefit	-9.9218
▁plu	-9.92241
work	-9.92246
phone	-9.92274
▁Ten	-9.92323
speed	-9.92437
bout	-9.92456
tel	-9.92668
▁Ford	-9.92782
uk	-9.92941
▁govern	-9.9299
▁treat	-9.9302
▁Agassi	-9.93095
▁Austria	-9.93095
▁Baltimore	-9.93095
▁Convention	-9.93095
▁Spitz	-9.93095
▁border	-9.93095
▁creating	-9.93095
▁separate	-9.93095
▁Congress	-9.93095
▁Ireland	-9.93095
▁Jays	-9.93095
▁cheap	-9.93095
▁optimis	-9.93096
▁Flex	-9.93096
▁easy	-9.93096
▁debate	-9.93097
▁remote	-9.93097
▁together	-9.93097
▁website	-9.93097
▁prevent	-9.93098
▁confidence	-9.93098
▁swimmer	-9.93099
▁Way	-9.93101
▁probabl	-9.93101
▁database	-9.93102
▁BEA	-9.93102
▁sex	-9.93104
▁extension	-9.93115
▁finding	-9.93118
▁Brown	-9.93122
▁Parma	-9.93125
▁Keep	-9.93128
▁Change	-9.93135
▁Paris	-9.93141
atch	-9.93142
▁deport	-9.93148
▁apparently	-9.93175
▁orbit	-9.93207
▁putting	-9.93209
▁raid	-9.93225
▁10,000	-9.93251
▁Tech	-9.93257
▁voice	-9.93312
▁Final	-9.93322
pro	-9.93393
▁elect	-9.9341
▁Retailer	-9.93465
▁qualifying	-9.9353
vez	-9.93597
▁disappointing	-9.93613
▁Your	-9.93649
▁Star	-9.93697
▁expects	-9.93709
▁Carl	-9.93709
▁phones	-9.93742
head	-9.93851
▁declared	-9.93953
abo	-9.93955
▁explod	-9.93966
▁joint	-9.9411
▁Lu	-9.94155
▁flying	-9.94156
▁starts	-9.94207
▁Glo	-9.94254
ctic	-9.94306
▁Won	-9.94371
▁serv	-9.94399
▁mu	-9.9447
▁van	-9.94481
▁Rule	-9.945
▁cover	-9.94563
▁watched	-9.94666
▁art	-9.94759
▁route	-9.94777
▁blame	-9.94782
lete	-9.94844
▁moons	-9.94951
iling	-9.94958
▁Kan	-9.95239
▁lives	-9.95421
▁Ru	-9.95436
▁suffer	-9.95486
▁confirm	-9.95569
▁Eli	-9.95582
▁needed	-9.95842
house	-9.95875
▁\\	-9.95904
UST	-9.95937
▁militant	-9.95966
▁Barr	-9.96006
erry	-9.96008
▁schedule	-9.96205
▁purchase	-9.96368
▁ju	-9.96546
band	-9.96548
▁Charge	-9.96641
▁Cleric	-9.96666
▁Cleveland	-9.96666
▁Guinea	-9.96666
▁Lithuania	-9.96666
▁Sydney	-9.96666
▁iTunes	-9.96666
▁massacr	-9.96666
▁veteran	-9.96666
▁Billiton	-9.96666
▁overhaul	-9.96666
▁streak	-9.96666
▁material	-9.96667
▁Firm	-9.96667
▁crucia	-9.96668
▁Foster	-9.96668
▁defensive	-9.9667
▁mutual	-9.9667
▁rescue	-9.96672
▁Violen	-9.96674
▁population	-9.96674
▁judo	-9.96677
▁escape	-9.96681
▁Black	-9.96682
▁amount	-9.96692
▁package	-9.96696
▁Death	-9.96701
▁Order	-9.96704
▁parent	-9.96713
▁800	-9.96718
▁Mason	-9.9672
zi	-9.96724
▁Peter	-9.96726
▁vari	-9.96734
▁IN	-9.96736
▁Treasury	-9.96738
▁immediately	-9.96741
▁encourag	-9.96745
▁things	-9.9676
▁attract	-9.96798
▁Loss	-9.96803
▁surge	-9.96803
▁south	-9.96867
▁becom	-9.96982
▁Again	-9.96983
▁auto	-9.97019
▁scheduled	-9.9713
▁highest	-9.97171
▁5-	-9.97188
▁original	-9.97222
ladi	-9.97266
▁Trial	-9.97297
orn	-9.97354
▁judges	-9.97455
▁Host	-9.97492
▁Best	-9.98109
▁us	-9.98188
▁Product	-9.98215
▁shows	-9.98252
▁Player	-9.9847
AL	-9.98488
▁able	-9.98658
▁expect	-9.987
▁attacked	-9.98817
▁elections	-9.98924
▁delivered	-9.9902
rac	-9.99046
▁tanks	-9.99101
fee	-9.99149
▁info	-9.99156
▁reveal	-9.99263
▁unveil	-9.99272
▁fat	-9.993
HAR	-9.99305
▁9-	-9.99476
live	-9.99508
record	-9.99564
news	-9.99605
▁movie	-9.99735
▁decade	-9.99748
▁die	-9.99856
▁doing	-9.99922
▁Min	-9.99998
▁Low	-10.0006
▁Va	-10.0009
▁ads	-10.0012
load	-10.0021
▁Pu	-10.0028
IP	-10.0031
wage	-10.0035
▁audit	-10.0035
Packard	-10.0037
▁CARACAS	-10.0037
▁Cardinals	-10.0037
▁Detroit	-10.0037
▁Election	-10.0037
▁Madrid	-10.0037
▁Mexico	-10.0037
▁Noguchi	-10.0037
▁destroy	-10.0037
▁domestic	-10.0037
▁exchange	-10.0037
▁hurricane	-10.0037
▁register	-10.0037
▁regular	-10.0037
Qaida	-10.0037
▁Agency	-10.0037
▁attorney	-10.0037
▁collapse	-10.0037
▁multiple	-10.0037
▁Jeff	-10.0037
▁Video	-10.0037
▁committee	-10.0037
phishing	-10.0037
▁Demand	-10.0037
▁Cingular	-10.0037
▁peak	-10.0037
▁tiny	-10.0037
▁headquarters	-10.0037
▁River	-10.0037
▁normal	-10.0038
▁shock	-10.0038
▁beginning	-10.0038
▁sanctions	-10.0038
▁community	-10.0038
▁entertainment	-10.0038
▁favorite	-10.0039
▁Ease	-10.0039
▁comment	-10.004
▁Senate	-10.004
▁warns	-10.0043
▁quiet	-10.0045
▁Deng	-10.0049
▁fair	-10.0051
▁mall	-10.0052
TT	-10.0065
▁Planet	-10.0072
▁35	-10.0081
▁allegedly	-10.0088
mar	-10.0088
▁anticipated	-10.0098
rick	-10.0101
▁terrorists	-10.0101
▁demands	-10.0104
lk	-10.0106
▁shak	-10.0107
▁Hew	-10.0112
▁sub	-10.0118
▁Leader	-10.0139
▁counter	-10.0149
terior	-10.0154
▁introduce	-10.0165
olks	-10.0174
▁pla	-10.0177
▁Mid	-10.0187
▁waiting	-10.0192
▁Lee	-10.0194
▁1:	-10.0207
▁Sports	-10.0228
▁hands	-10.0231
▁Times	-10.0252
▁Hall	-10.0265
▁fr	-10.0284
final	-10.0308
▁looks	-10.0316
▁calling	-10.0326
▁threats	-10.0327
▁opponents	-10.0343
PC	-10.0374
▁refugee	-10.0378
▁settle	-10.038
▁sprint	-10.0382
▁member	-10.0385
ough	-10.0392
▁Olympia	-10.0398
▁emerg	-10.0405
▁boo	-10.0405
▁tight	-10.0413
igital	-10.042
▁Militia	-10.042
▁negotiat	-10.0421
▁1-	-10.0421
▁Arizona	-10.0422
▁Chechnya	-10.0422
▁Conference	-10.0422
▁Earnings	-10.0422
▁Enterprise	-10.0422
▁Holmes	-10.0422
▁Indonesia	-10.0422
▁built	-10.0422
▁describ	-10.0422
▁laptop	-10.0422
▁platform	-10.0422
▁struggling	-10.0422
▁unusual	-10.0422
▁weightlifter	-10.0422
▁Hungary	-10.0422
▁Pinsent	-10.0422
▁Tutsi	-10.0422
▁measure	-10.0422
▁Credit	-10.0422
▁Strike	-10.0422
▁moving	-10.0422
▁occup	-10.0422
▁sought	-10.0422
▁closing	-10.0422
▁detainees	-10.0422
▁Fleet	-10.0422
▁clean	-10.0422
▁tumble	-10.0422
▁scoring	-10.0422
▁6-	-10.0422
▁crew	-10.0422
▁HealthDay	-10.0422
▁technique	-10.0422
▁McDonald	-10.0422
▁dramatic	-10.0422
▁postpon	-10.0422
▁manufacturing	-10.0422
▁father	-10.0422
▁Review	-10.0423
▁Old	-10.0423
▁stole	-10.0423
▁Laden	-10.0423
▁quickly	-10.0423
▁Middle	-10.0423
▁Chile	-10.0424
▁gather	-10.0427
▁effective	-10.043
▁output	-10.043
▁march	-10.0431
▁Meet	-10.0431
▁touch	-10.0432
▁Anti	-10.0433
▁exist	-10.0433
▁88	-10.0435
▁manufacturer	-10.0437
▁Scott	-10.0439
▁easily	-10.0441
breaking	-10.0441
▁discovery	-10.0446
▁eighth	-10.0447
▁conduct	-10.0449
▁province	-10.0451
▁Reg	-10.0454
▁signal	-10.0458
▁Ask	-10.0459
▁position	-10.0462
▁mixed	-10.0463
▁hang	-10.0465
▁Slow	-10.0466
▁broken	-10.0467
▁ste	-10.0469
pson	-10.0472
▁dial	-10.0473
▁owners	-10.0474
▁mind	-10.0474
▁\$4	-10.048
▁arrived	-10.0487
▁Earl	-10.0489
▁really	-10.049
▁holes	-10.0492
ich	-10.0496
▁Ya	-10.0499
olish	-10.0532
▁rec	-10.0534
▁sees	-10.0547
▁im	-10.0565
▁fly	-10.0569
▁\$46	-10.0578
egi	-10.0582
▁wi	-10.0582
mber	-10.0587
▁Spa	-10.0593
▁SA	-10.0595
▁buying	-10.0599
▁crashed	-10.0609
▁numbers	-10.0611
lock	-10.0622
▁Fan	-10.0633
▁Par	-10.0645
▁Sam	-10.0654
▁non	-10.0656
ky	-10.0662
ify	-10.0663
eva	-10.0671
▁delay	-10.068
▁evening	-10.0691
▁earn	-10.0705
▁spend	-10.071
▁rebound	-10.0713
▁Ver	-10.0733
election	-10.0733
TC	-10.0734
card	-10.0738
play	-10.074
▁30-	-10.0743
vision	-10.0749
▁den	-10.0761
HD	-10.0763
hour	-10.0775
▁lines	-10.0778
▁Tiger	-10.0792
▁hurdles	-10.0796
▁wa	-10.0796
▁cu	-10.0797
▁Rebel	-10.0797
▁Philippine	-10.0801
▁Cat	-10.081
▁kidnapp	-10.0811
▁welcome	-10.0817
▁Lowe	-10.0817
▁civil	-10.0819
▁Hungarian	-10.0822
▁Jamaica	-10.0822
▁Matthew	-10.0822
▁Moscow	-10.0822
▁Pilot	-10.0822
▁Ukraine	-10.0822
▁Verizon	-10.0822
▁cycling	-10.0822
▁explain	-10.0822
▁implement	-10.0822
▁Soccer	-10.0822
▁Target	-10.0822
▁controversi	-10.0822
▁speech	-10.0822
▁UFJ	-10.0822
▁wife	-10.0822
▁bug	-10.0822
▁slump	-10.0822
▁Another	-10.0822
▁cloth	-10.0822
▁shut	-10.0822
▁cruis	-10.0822
▁64-	-10.0822
▁Bird	-10.0822
▁iPass	-10.0822
▁middle	-10.0822
▁Next	-10.0822
▁sacr	-10.0822
▁1.3	-10.0823
▁Treasuries	-10.0823
▁heard	-10.0823
▁chart	-10.0824
▁distribution	-10.0825
▁mice	-10.0825
▁factories	-10.0825
▁Reject	-10.0826
▁sm	-10.0827
▁experience	-10.0827
▁NBA	-10.0827
▁currency	-10.0828
▁hostage	-10.0829
▁unexpected	-10.0829
▁slightly	-10.0831
▁sky	-10.0834
▁Flight	-10.0834
seeded	-10.0835
▁Job	-10.0838
CNN	-10.0838
▁Race	-10.084
▁flight	-10.0842
▁Under	-10.0842
▁Allen	-10.0843
▁People	-10.0843
▁affect	-10.0851
▁attention	-10.0851
▁captured	-10.0851
▁Tigers	-10.0852
▁foot	-10.0854
▁Year	-10.0854
▁Southern	-10.0879
▁restructuring	-10.0882
uff	-10.0895
▁hour	-10.0895
ira	-10.0902
▁User	-10.0929
▁Unit	-10.093
▁Carly	-10.0934
▁Site	-10.0941
▁revealed	-10.0943
ford	-10.0954
▁spy	-10.0957
unk	-10.096
hal	-10.098
▁Chris	-10.1019
05	-10.1028
gen	-10.1032
▁reportedly	-10.1035
▁Troops	-10.1039
▁Mu	-10.1039
▁70	-10.1059
▁str	-10.1063
▁Mon	-10.1074
ister	-10.1107
ik	-10.1116
▁offset	-10.1127
▁Arab	-10.1133
▁fact	-10.1143
aron	-10.1152
dom	-10.1154
school	-10.1157
point	-10.1157
Server	-10.1157
▁Silv	-10.116
We	-10.1161
oral	-10.1173
▁slip	-10.1191
wide	-10.1193
▁begins	-10.1194
▁names	-10.1194
▁impos	-10.1201
HP	-10.1203
▁11-	-10.1207
BA	-10.121
▁environment	-10.1227
▁Swiss	-10.1228
▁figure	-10.123
▁employee	-10.1231
▁regulator	-10.1232
▁option	-10.1232
▁Compu	-10.1234
▁secret	-10.1235
▁import	-10.1237
▁Basketball	-10.1238
▁Battle	-10.1238
▁Climb	-10.1238
▁Commerce	-10.1238
▁Equato	-10.1238
▁Hospital	-10.1238
▁November	-10.1238
▁Peirsol	-10.1238
▁Rival	-10.1238
▁SINGAPORE	-10.1238
▁critical	-10.1238
▁gasoline	-10.1238
▁notebook	-10.1238
▁softball	-10.1238
▁suicide	-10.1238
▁surcharge	-10.1238
▁technologies	-10.1238
▁themselves	-10.1238
▁Rwanda	-10.1238
▁Science	-10.1238
▁Venus	-10.1238
▁enforce	-10.1238
▁submit	-10.1238
▁Title	-10.1238
▁Lanka	-10.1239
▁demonstrat	-10.1239
▁infect	-10.1239
▁Shot	-10.1239
▁Coast	-10.1239
▁Water	-10.1239
▁insurance	-10.1239
▁himself	-10.124
▁kit	-10.124
▁story	-10.1241
▁rover	-10.1241
▁Super	-10.1241
▁agent	-10.1242
▁Seven	-10.1243
▁Victory	-10.1247
quiry	-10.1251
▁Associates	-10.1252
▁3,000	-10.1253
▁thing	-10.1254
kin	-10.1255
▁emerge	-10.1256
▁cutting	-10.1257
▁2000	-10.1259
▁plott	-10.126
▁exit	-10.1261
hit	-10.1262
▁Lake	-10.1263
eyton	-10.1267
▁self	-10.1272
▁Hal	-10.1274
▁2-	-10.1276
▁Kell	-10.1279
▁plead	-10.1279
▁generation	-10.1285
her	-10.1286
▁eye	-10.1291
▁possib	-10.1291
▁Sara	-10.1298
▁Shell	-10.1298
▁taxes	-10.1303
▁piracy	-10.1309
▁decades	-10.1309
vol	-10.1319
▁owner	-10.132
▁32	-10.1327
▁Flat	-10.1334
▁tonight	-10.1348
▁goods	-10.1348
▁Dow	-10.135
▁Bell	-10.135
▁Add	-10.1357
▁Eye	-10.1361
▁Step	-10.1363
▁thank	-10.1377
ched	-10.1386
ular	-10.1409
▁considering	-10.1436
▁Don	-10.1437
▁roll	-10.1442
)--	-10.1453
In	-10.1478
IL	-10.148
▁flaws	-10.1505
▁AG	-10.1515
Com	-10.1528
▁injur	-10.1531
▁Aid	-10.1533
▁landing	-10.1542
uke	-10.1587
▁payments	-10.1591
known	-10.1592
▁troubl	-10.1595
ttled	-10.1597
where	-10.1605
tial	-10.1611
▁bin	-10.1615
▁Franc	-10.1617
▁Lose	-10.1619
▁words	-10.1625
CC	-10.1631
▁Falls	-10.1647
tting	-10.1649
▁Tim	-10.1654
▁slam	-10.1659
▁thin	-10.1659
▁sting	-10.1661
▁parliament	-10.1662
▁broad	-10.1664
▁manage	-10.1666
▁Even	-10.1666
▁Democrat	-10.1667
▁safe	-10.1672
TODAY	-10.1673
▁Dolphin	-10.1673
▁Little	-10.1673
▁Orioles	-10.1673
▁Roddick	-10.1673
▁Thousand	-10.1673
▁athletic	-10.1673
▁perfect	-10.1673
▁relationship	-10.1673
▁venture	-10.1673
▁Withdraw	-10.1673
▁brief	-10.1673
▁determine	-10.1673
▁girl	-10.1673
▁message	-10.1673
▁Border	-10.1673
▁addition	-10.1673
▁doubt	-10.1673
▁Ulmer	-10.1673
▁Henry	-10.1673
▁equal	-10.1673
▁Wariner	-10.1673
▁sound	-10.1673
▁worry	-10.1674
▁index	-10.1674
▁guy	-10.1674
▁compar	-10.1674
▁boy	-10.1674
▁Kosta	-10.1674
▁Martin	-10.1674
LCD	-10.1675
TA	-10.1675
▁Ken	-10.1675
▁bright	-10.1675
▁arrive	-10.1677
▁Begin	-10.1677
▁merger	-10.1678
▁Boost	-10.1678
▁worldwide	-10.1682
▁Arroyo	-10.1682
vard	-10.1685
shore	-10.1686
▁embass	-10.1687
▁feature	-10.1688
▁boom	-10.1689
▁connection	-10.1695
▁Track	-10.1706
▁Ahead	-10.1707
kia	-10.1711
▁Block	-10.1715
▁26	-10.1727
ways	-10.1734
▁vs	-10.1739
ngry	-10.1751
▁Want	-10.1756
ull	-10.1772
▁relat	-10.1774
▁increases	-10.1776
▁manag	-10.1794
cla	-10.1796
▁\$10	-10.1803
lap	-10.1804
▁Have	-10.1811
onic	-10.1812
▁terms	-10.1841
born	-10.1853
80	-10.189
RO	-10.1893
km	-10.1894
▁\$29	-10.1909
▁victims	-10.1952
▁processors	-10.1956
▁#36;2	-10.1958
nothing	-10.196
ible	-10.1962
▁streets	-10.1973
▁Mak	-10.2012
▁limit	-10.2016
▁Lik	-10.2072
▁improv	-10.2087
▁electronics	-10.2099
AA	-10.2102
conomic	-10.2104
iracy	-10.2113
▁Media	-10.2117
▁Khorkina	-10.2128
▁Musharraf	-10.2128
▁Oakland	-10.2128
▁SYDNEY	-10.2128
▁Sardinia	-10.2128
▁complex	-10.2128
▁emergency	-10.2128
▁guerrilla	-10.2128
▁happen	-10.2128
▁natural	-10.2128
▁remember	-10.2128
▁solution	-10.2128
▁subscriber	-10.2128
▁tomorrow	-10.2128
▁Angola	-10.2128
▁Chechen	-10.2128
▁crimes	-10.2128
▁famous	-10.2128
▁detect	-10.2128
▁Selig	-10.2128
▁error	-10.2128
▁patent	-10.2128
▁Accor	-10.2128
▁Jerem	-10.2128
▁Tennis	-10.2128
▁photo	-10.2128
▁inventor	-10.2128
▁regulations	-10.2128
▁Aussie	-10.2128
▁Small	-10.2128
▁Owen	-10.2128
▁offense	-10.2128
▁abandon	-10.2128
▁solid	-10.2128
▁Six	-10.2128
▁pounded	-10.2128
▁Urge	-10.2128
▁clue	-10.2128
▁electricity	-10.2128
▁stunning	-10.2128
▁derail	-10.2129
▁3,500	-10.2129
▁worst	-10.2129
▁painting	-10.213
▁stopped	-10.213
▁Alexand	-10.213
▁Executive	-10.213
▁Cha	-10.2131
▁switch	-10.2132
▁dash	-10.2133
▁Medical	-10.2135
▁Young	-10.2135
▁runner	-10.2136
▁6-2	-10.2137
▁treatment	-10.2138
▁eyes	-10.2139
▁Bryant	-10.2142
▁setback	-10.2143
▁Flash	-10.2144
▁rating	-10.2145
▁Dead	-10.2145
nano	-10.2146
▁reign	-10.2147
▁Billion	-10.2151
▁understand	-10.2152
▁Rover	-10.2154
▁electronic	-10.2156
▁burn	-10.2157
▁Read	-10.2157
▁hurdle	-10.2157
▁Nazi	-10.2158
OTT	-10.2159
▁Well	-10.2159
▁Wood	-10.216
▁Jobs	-10.2162
▁exec	-10.2168
▁parties	-10.217
▁fish	-10.2177
▁present	-10.218
▁laws	-10.2186
▁Chad	-10.2187
▁tip	-10.2187
▁49	-10.2189
▁Manning	-10.219
▁core	-10.2197
▁rich	-10.2199
▁date	-10.2202
▁Like	-10.2205
▁Hi	-10.2209
erto	-10.2215
arian	-10.222
lain	-10.2226
ament	-10.2229
▁\$100	-10.2232
grade	-10.2234
▁faster	-10.2245
▁patients	-10.2256
▁instant	-10.226
▁BA	-10.227
position	-10.2283
▁LA	-10.229
▁writer	-10.23
▁Ju	-10.2306
ova	-10.2308
▁Rep	-10.2329
▁user	-10.2334
▁doubled	-10.2337
▁Rela	-10.2355
▁Ne	-10.2358
ame	-10.2378
metre	-10.2386
bust	-10.2387
▁involve	-10.2397
dust	-10.2415
▁mar	-10.2432
store	-10.2446
1)	-10.2447
▁Justi	-10.2456
▁feel	-10.2485
▁shoot	-10.2487
▁alleg	-10.2502
▁DE	-10.2507
right	-10.2521
like	-10.2523
body	-10.2534
▁plea	-10.2549
some	-10.256
▁rank	-10.2566
▁weigh	-10.2568
▁Ki	-10.2578
▁easi	-10.2579
▁friend	-10.2579
▁strength	-10.2595
▁EA	-10.2597
▁commit	-10.2601
▁Alex	-10.2602
stitution	-10.2602
▁produce	-10.2603
▁kid	-10.2604
html	-10.2604
▁Anaheim	-10.2604
▁Colombia	-10.2604
▁December	-10.2604
▁Football	-10.2604
▁Guard	-10.2604
▁Hispano	-10.2604
▁KATHMANDU	-10.2604
▁MOSCOW	-10.2604
▁Properties	-10.2604
▁Taliban	-10.2604
▁\$9	-10.2604
▁bolster	-10.2604
▁enjoy	-10.2604
▁messaging	-10.2604
▁property	-10.2604
▁registration	-10.2604
▁silicon	-10.2604
▁situation	-10.2604
▁unbeaten	-10.2604
▁Effect	-10.2604
▁Everton	-10.2604
▁Information	-10.2604
▁bought	-10.2604
▁budget	-10.2604
▁reserve	-10.2604
▁vault	-10.2604
▁Announce	-10.2604
▁Result	-10.2604
▁contain	-10.2604
▁Heinz	-10.2604
▁Weigh	-10.2604
▁dark	-10.2604
▁organization	-10.2604
▁rapid	-10.2604
▁Java	-10.2604
▁Norway	-10.2604
▁County	-10.2604
▁zone	-10.2604
▁diving	-10.2604
▁Lilly	-10.2604
▁living	-10.2604
▁detain	-10.2604
▁Rico	-10.2604
▁criticism	-10.2604
▁usual	-10.2604
▁knee	-10.2604
▁curb	-10.2604
▁allegations	-10.2604
▁Plc	-10.2604
▁mountain	-10.2604
▁spring	-10.2605
▁fun	-10.2605
▁Conne	-10.2605
▁crown	-10.2606
▁Louis	-10.2606
▁trend	-10.2606
fought	-10.2606
▁important	-10.2606
▁cancel	-10.2608
▁creditors	-10.2608
▁\$48	-10.2608
▁address	-10.2608
▁Matt	-10.2608
▁Raise	-10.2609
▁estate	-10.261
▁Scream	-10.2612
▁Link	-10.2612
▁soft	-10.2614
relat	-10.2615
▁rallied	-10.2616
▁Reach	-10.2618
▁often	-10.2619
▁estimated	-10.2619
▁Tax	-10.2622
▁professional	-10.2622
▁Launch	-10.2622
▁gre	-10.2623
▁Brad	-10.2623
▁Head	-10.2626
▁gone	-10.2631
▁wonder	-10.2632
gue	-10.2632
▁canno	-10.2632
▁Rul	-10.2634
▁2002	-10.2635
▁paper	-10.2638
▁antitrust	-10.2641
▁Nigerian	-10.2647
▁mag	-10.2648
empt	-10.2656
▁distance	-10.2663
▁Gun	-10.2663
8,000	-10.2663
izing	-10.2664
▁officer	-10.2666
▁partner	-10.2666
▁Send	-10.2667
▁peer	-10.2669
wire	-10.2669
▁word	-10.2672
▁Ship	-10.2679
▁movies	-10.2687
▁Downer	-10.2687
▁seat	-10.2689
aze	-10.2689
▁rout	-10.269
ram	-10.2691
▁Za	-10.2691
▁withhold	-10.2696
▁sprinter	-10.27
▁Pent	-10.2704
▁exporter	-10.2706
bel	-10.2713
▁wage	-10.2715
put	-10.2724
▁Ll	-10.2724
\$1	-10.2727
▁costly	-10.2736
▁rebounded	-10.2738
▁vendors	-10.2754
▁Card	-10.2768
▁flash	-10.2777
▁winds	-10.2777
tention	-10.279
tage	-10.2792
▁Goe	-10.2795
▁Tre	-10.2797
▁practices	-10.28
pur	-10.2806
AU	-10.2813
ient	-10.282
pping	-10.2837
▁Ban	-10.2838
▁golden	-10.2844
▁gained	-10.2849
▁bell	-10.2852
▁Ber	-10.2855
▁couldn	-10.2866
▁tout	-10.287
▁equit	-10.2873
▁designer	-10.2874
well	-10.2882
▁Cap	-10.2904
▁rep	-10.2904
acy	-10.292
News	-10.2923
▁dot	-10.2947
▁500	-10.296
hook	-10.2962
▁pl	-10.297
hir	-10.2973
vel	-10.2975
BI	-10.2977
▁explode	-10.2978
▁Officials	-10.298
▁await	-10.2992
found	-10.3024
▁simpl	-10.3064
ulf	-10.3072
▁clash	-10.3092
▁violat	-10.3095
▁promot	-10.3095
▁Die	-10.3097
▁column	-10.3099
▁Develop	-10.31
driven	-10.3101
▁Engl	-10.3102
▁birth	-10.3102
▁Euro	-10.3102
▁communi	-10.3102
▁Turk	-10.3104
▁Campaign	-10.3104
▁Carolina	-10.3104
▁Columbia	-10.3104
▁Control	-10.3104
▁Crawford	-10.3104
▁Integrat	-10.3104
▁Massachusetts	-10.3104
▁Pacific	-10.3104
▁butterfly	-10.3104
▁exercise	-10.3104
▁luxury	-10.3104
▁politician	-10.3104
▁regard	-10.3104
▁telescope	-10.3104
▁vehicle	-10.3104
▁Padres	-10.3104
▁Tibet	-10.3104
▁competitor	-10.3104
▁cyber	-10.3104
▁stroke	-10.3104
▁balance	-10.3104
▁Third	-10.3104
▁squad	-10.3104
▁Break	-10.3104
▁Jason	-10.3104
▁Injur	-10.3104
▁Nicol	-10.3104
▁Leave	-10.3104
▁James	-10.3104
▁trail	-10.3104
▁stretch	-10.3104
▁transport	-10.3104
▁guilty	-10.3104
▁Appli	-10.3104
▁portfolio	-10.3105
▁Fear	-10.3105
▁Arch	-10.3105
▁90-	-10.3105
▁bounce	-10.3106
▁modern	-10.3106
▁AUG	-10.3107
▁Bears	-10.3107
▁Ratings	-10.3108
▁airport	-10.3108
▁comeback	-10.3109
▁memo	-10.311
▁oust	-10.3111
▁Jose	-10.3112
▁trick	-10.3112
▁Boo	-10.3113
▁violation	-10.3113
▁NBC	-10.3113
▁hackers	-10.3113
▁traders	-10.3114
▁FCC	-10.3115
▁announcement	-10.3116
▁park	-10.3118
▁Heav	-10.312
▁begun	-10.3122
▁shoulder	-10.3123
▁continuing	-10.3126
raud	-10.3126
IM	-10.3127
▁article	-10.3135
▁Olympian	-10.3135
▁Run	-10.3138
outhwest	-10.3139
▁seventh	-10.3141
▁SCO	-10.3144
▁Mill	-10.3152
▁identifi	-10.3154
▁banking	-10.3154
▁Name	-10.3156
▁beaten	-10.3163
ORDA	-10.3177
▁Greene	-10.3179
eather	-10.3182
▁Row	-10.3186
▁Store	-10.3189
▁teammate	-10.3193
▁8-	-10.3193
▁Fish	-10.3207
linked	-10.321
inning	-10.321
▁lock	-10.3214
100	-10.3224
▁trap	-10.3224
▁rolled	-10.3236
▁benefits	-10.3239
▁Def	-10.324
▁produced	-10.3245
dependence	-10.3246
▁limited	-10.3248
▁minute	-10.3251
▁Laur	-10.3252
▁song	-10.3264
VI	-10.3272
25	-10.3276
▁prosecutors	-10.3282
▁60	-10.3302
▁locat	-10.3304
▁deni	-10.3311
▁insist	-10.3326
stant	-10.3332
▁OS	-10.3345
▁shareholders	-10.3354
eep	-10.3361
Dow	-10.3362
▁\$15	-10.3363
rap	-10.3365
▁pan	-10.3371
04	-10.3373
ncer	-10.3374
▁Fo	-10.3378
za	-10.3396
▁Mr	-10.3423
▁Champions	-10.3427
▁surg	-10.3432
ude	-10.3434
▁ID	-10.3435
▁Reporter	-10.3437
▁disc	-10.3456
▁complet	-10.3461
part	-10.3465
20	-10.3467
▁NA	-10.3468
▁Mari	-10.347
▁Dip	-10.3483
▁Part	-10.3489
use	-10.3501
uge	-10.3503
▁reduc	-10.3505
▁trip	-10.3517
clear	-10.3533
ompanies	-10.3533
▁Han	-10.3535
portion	-10.3543
▁teammates	-10.355
power	-10.3551
piracy	-10.3561
ahead	-10.3575
ground	-10.3583
71	-10.3591
▁securit	-10.3595
▁Associat	-10.3615
▁weak	-10.3616
▁Cincinnati	-10.363
▁Clemens	-10.363
▁Colorado	-10.363
▁Devices	-10.363
▁Guidant	-10.363
▁Industry	-10.363
▁Liverpool	-10.363
▁Nesterenko	-10.363
▁Pentagon	-10.363
▁Quincy	-10.363
▁Ramirez	-10.363
▁Sheffield	-10.363
▁Solution	-10.363
▁Suspend	-10.363
▁Woodgate	-10.363
▁acknowledg	-10.363
▁combat	-10.363
▁complain	-10.363
▁stunned	-10.363
▁surprising	-10.363
▁surrender	-10.363
▁tribunal	-10.363
▁trigger	-10.363
▁triumph	-10.363
▁violent	-10.363
_	-10.363
▁Auction	-10.363
▁CITY	-10.363
▁Salvador	-10.363
▁Suprem	-10.363
▁deficit	-10.363
▁retreat	-10.363
▁technical	-10.363
▁Phillies	-10.363
▁instead	-10.363
▁worried	-10.363
▁Latham	-10.363
▁Michigan	-10.363
▁Saudi	-10.363
▁Expert	-10.363
▁sector	-10.363
▁Swedish	-10.363
▁upbeat	-10.363
▁Protest	-10.363
▁confident	-10.363
▁Joyo	-10.363
▁sample	-10.363
▁honor	-10.363
sustain	-10.363
▁Eagles	-10.363
▁medallist	-10.363
▁Slip	-10.363
▁infringement	-10.363
▁Possibl	-10.3631
▁Storm	-10.3631
▁answer	-10.3631
▁Sweep	-10.3631
▁caught	-10.3631
▁rookie	-10.3631
▁subject	-10.3631
▁kind	-10.3631
▁golf	-10.3631
▁Xbox	-10.3631
▁conspiracy	-10.3631
▁pigs	-10.3632
▁safety	-10.3632
ville	-10.3632
▁Hicks	-10.3632
▁Revolution	-10.3633
▁Virginia	-10.3634
▁1-0	-10.3634
▁Peak	-10.3634
▁quarterfinals	-10.3634
▁standoff	-10.3635
depth	-10.3635
▁3-0	-10.3636
▁infrastructure	-10.3637
▁Howard	-10.3637
▁yen	-10.3637
▁injuries	-10.3638
▁vice	-10.3639
▁coup	-10.3639
▁governor	-10.364
▁Bowl	-10.3642
▁pain	-10.3643
▁qu	-10.3644
▁liquid	-10.3646
▁crush	-10.3646
▁everything	-10.3646
▁Osa	-10.365
terina	-10.3652
▁strategy	-10.3652
▁Eric	-10.3653
▁cold	-10.3654
▁Who	-10.3655
▁51	-10.3656
▁vi	-10.3656
▁Ryan	-10.3657
New	-10.3658
▁voters	-10.366
▁Gill	-10.366
▁Sanders	-10.3662
▁Bow	-10.3663
▁48	-10.3664
nder	-10.3664
▁ride	-10.3668
▁defus	-10.3672
▁Valley	-10.3682
going	-10.369
▁income	-10.3697
igned	-10.3699
▁eat	-10.3702
lum	-10.3707
▁Come	-10.3708
bbed	-10.3712
69	-10.3717
sym	-10.3723
UR	-10.3725
▁indicat	-10.3729
▁Bru	-10.3734
▁opponent	-10.374
▁sue	-10.374
▁athlete	-10.3744
WS	-10.3748
▁Rose	-10.3748
ague	-10.3751
▁Qui	-10.3753
tsu	-10.3765
▁activists	-10.3768
▁payment	-10.3774
lus	-10.3802
▁medalist	-10.3804
▁suffering	-10.3808
86	-10.3817
▁Share	-10.383
▁denie	-10.3833
turn	-10.3835
▁stronger	-10.3842
OH	-10.3845
che	-10.3856
▁Jr	-10.3857
▁concerned	-10.3871
ME	-10.3873
▁band	-10.3875
gun	-10.3884
▁documents	-10.3895
▁serve	-10.3895
▁Stan	-10.3906
▁judg	-10.3923
▁(\$	-10.3952
▁accepted	-10.396
▁improvements	-10.3999
▁Stun	-10.4006
▁400-	-10.4008
▁mail	-10.4014
▁discover	-10.4041
▁lawyers	-10.4049
▁tap	-10.4068
▁GM	-10.4073
▁acquir	-10.4079
org	-10.4082
▁celebrate	-10.4083
▁Use	-10.4083
▁independen	-10.4085
▁gene	-10.4098
water	-10.4106
▁Auto	-10.4108
▁UAL	-10.4111
▁age	-10.4116
room	-10.4124
TE	-10.4126
IG	-10.4128
▁direct	-10.4133
▁approve	-10.4143
OW	-10.4155
▁Marine	-10.4161
▁villa	-10.4164
cast	-10.4165
Star	-10.4168
hoo	-10.4169
▁priced	-10.4175
▁hack	-10.4179
evin	-10.4183
istrict	-10.4184
undreds	-10.4185
MacCentral	-10.4186
egative	-10.4186
▁Belarus	-10.4186
▁Davenport	-10.4186
▁Egypt	-10.4186
▁Energy	-10.4186
▁Jersey	-10.4186
▁Kashmir	-10.4186
▁Materials	-10.4186
▁Organization	-10.4186
▁Portugal	-10.4186
▁Public	-10.4186
▁Telescope	-10.4186
▁delegate	-10.4186
▁desperate	-10.4186
▁education	-10.4186
▁entire	-10.4186
▁reflect	-10.4186
▁studio	-10.4186
▁supplier	-10.4186
▁wrestl	-10.4186
▁Aziz	-10.4186
▁Hubble	-10.4186
▁OPEC	-10.4186
▁Toyota	-10.4186
▁choice	-10.4186
▁legislat	-10.4186
▁muscle	-10.4186
▁stadium	-10.4186
▁Edition	-10.4186
▁Support	-10.4186
▁Double	-10.4186
▁editor	-10.4186
▁Radio	-10.4186
▁height	-10.4186
▁Strong	-10.4186
▁speak	-10.4186
▁twist	-10.4186
▁twin	-10.4186
Marathon	-10.4186
▁Prix	-10.4186
▁missteps	-10.4186
▁Every	-10.4186
▁Fail	-10.4186
▁Genes	-10.4186
▁east	-10.4186
▁pois	-10.4187
▁partnership	-10.4187
▁draft	-10.4187
erhaps	-10.4187
▁suspension	-10.4187
▁clinch	-10.4188
▁routine	-10.4188
▁jury	-10.4189
▁shutout	-10.419
▁deadline	-10.419
▁Mauri	-10.4192
▁cities	-10.4192
▁Also	-10.4193
▁argument	-10.4193
▁reality	-10.4193
▁Watch	-10.4194
▁hills	-10.4194
▁Charl	-10.4194
▁stir	-10.4195
▁Beach	-10.4198
▁Khar	-10.4199
▁Jump	-10.4203
▁fill	-10.4205
▁Pull	-10.4206
▁Silicon	-10.4207
▁56	-10.4212
▁Andrew	-10.4215
▁piece	-10.4217
hitter	-10.4217
▁true	-10.4218
▁Legal	-10.4219
▁shipment	-10.4221
torn	-10.4224
▁37	-10.4225
▁receiver	-10.4229
Ticke	-10.4232
▁Soar	-10.4235
▁Hill	-10.4236
▁assembly	-10.4249
▁declare	-10.4258
▁matches	-10.4262
wan	-10.4266
▁supporters	-10.4267
▁centre	-10.4271
▁ty	-10.4273
▁Expect	-10.4278
cah	-10.4281
▁12-	-10.429
tery	-10.4293
▁founders	-10.4294
▁hir	-10.4302
▁pos	-10.4308
▁automatic	-10.4314
▁Iv	-10.4318
▁Sir	-10.4322
▁lawyer	-10.4324
▁Spo	-10.4326
▁Torr	-10.4326
▁System	-10.4333
▁compet	-10.4338
▁Official	-10.4343
▁stat	-10.4345
▁string	-10.4352
style	-10.4354
▁insurers	-10.4359
▁admitt	-10.4361
STON	-10.4367
ctual	-10.4373
▁predicted	-10.4397
▁Offering	-10.44
▁traded	-10.44
law	-10.4413
▁Costa	-10.4419
▁Dr	-10.4429
▁placed	-10.4431
▁details	-10.4439
▁writes	-10.444
▁Fac	-10.4448
▁Gri	-10.446
▁watching	-10.4461
▁passed	-10.447
▁ST	-10.4503
▁Homer	-10.4505
verge	-10.4518
▁ill	-10.452
95	-10.4522
▁mon	-10.4524
cross	-10.4527
IO	-10.4547
▁promis	-10.456
finance	-10.4581
▁integrat	-10.4589
▁NC	-10.4625
▁Fight	-10.4657
erman	-10.4662
▁publish	-10.4664
40	-10.4666
bour	-10.4674
American	-10.4693
shot	-10.4702
Look	-10.4705
▁Lab	-10.4722
UM	-10.4725
taking	-10.4735
istic	-10.4739
scale	-10.4745
▁Heat	-10.4753
lecommunications	-10.4756
SON	-10.4757
▁invest	-10.4763
rich	-10.4765
▁disrupt	-10.4765
▁3-1	-10.4767
▁deploy	-10.4768
▁author	-10.477
▁Flu	-10.4771
▁danger	-10.4772
▁flag	-10.4774
▁oppos	-10.4774
▁Banknorth	-10.4774
▁Board	-10.4774
▁Brewers	-10.4774
▁Challenge	-10.4774
▁College	-10.4774
▁Gardner	-10.4774
▁Grokster	-10.4774
▁Intelligence	-10.4774
▁Netherlands	-10.4774
▁PARIS	-10.4774
▁Professional	-10.4774
▁Spirit	-10.4774
▁Standard	-10.4774
▁Through	-10.4774
▁\$913	-10.4774
▁analysis	-10.4774
▁astronaut	-10.4774
▁capsule	-10.4774
▁collaborat	-10.4774
▁controversy	-10.4774
▁convention	-10.4774
▁default	-10.4774
▁doctor	-10.4774
▁elbow	-10.4774
▁embarrass	-10.4774
▁establish	-10.4774
▁extreme	-10.4774
▁families	-10.4774
▁language	-10.4774
▁pollution	-10.4774
▁reorganization	-10.4774
▁responsibility	-10.4774
▁sluggish	-10.4774
▁typhoon	-10.4774
▁disaster	-10.4774
▁drink	-10.4774
▁supposed	-10.4774
▁transfer	-10.4774
▁venue	-10.4774
UNTA	-10.4774
▁Alaska	-10.4774
▁steady	-10.4774
▁webcam	-10.4774
▁Light	-10.4774
▁knew	-10.4774
▁operate	-10.4774
▁sight	-10.4774
▁Lindows	-10.4774
▁Muller	-10.4774
▁Richard	-10.4774
▁telecom	-10.4774
▁Manager	-10.4774
▁Thatcher	-10.4774
▁snatch	-10.4774
licious	-10.4774
▁Critic	-10.4774
▁overheat	-10.4774
▁barrier	-10.4774
▁haul	-10.4774
▁sense	-10.4774
▁embrace	-10.4774
▁Wait	-10.4774
▁component	-10.4774
▁Clear	-10.4774
▁EDS	-10.4774
▁\$7.2	-10.4774
▁supermarket	-10.4774
▁Farm	-10.4775
▁shuttle	-10.4775
▁owes	-10.4775
▁Administration	-10.4775
▁Issue	-10.4775
▁flagship	-10.4775
▁client	-10.4775
▁Housing	-10.4775
almOne	-10.4775
▁roar	-10.4775
▁steep	-10.4775
▁Mitsu	-10.4775
AWA	-10.4776
▁cheer	-10.4776
▁respect	-10.4776
▁rush	-10.4777
▁Left	-10.4778
▁modest	-10.4778
useum	-10.4779
▁stunt	-10.4779
Point	-10.4779
▁\$1.6	-10.478
▁scam	-10.478
▁lure	-10.4781
▁shrugg	-10.4781
▁influen	-10.4781
▁BlackBerry	-10.4782
▁anyone	-10.4783
▁cap	-10.4783
▁disruption	-10.4783
▁jet	-10.4784
▁Ris	-10.4784
▁Maine	-10.4784
▁Plea	-10.4785
▁visitors	-10.4786
▁appearance	-10.4789
▁dump	-10.4791
▁reward	-10.4795
▁2006	-10.4796
▁Push	-10.4797
▁invad	-10.48
▁stream	-10.4802
isse	-10.4802
▁Land	-10.4803
▁thre	-10.4803
▁quest	-10.4807
▁weaker	-10.4809
▁Marl	-10.481
▁Series	-10.4811
▁Flow	-10.4814
▁38	-10.4817
▁democracy	-10.4817
▁Kris	-10.4819
nix	-10.482
▁profile	-10.4827
▁dai	-10.4832
▁sick	-10.4834
▁Forest	-10.4838
▁cong	-10.4845
▁Cell	-10.4851
▁friendly	-10.4858
▁Money	-10.4859
hington	-10.4863
erald	-10.4865
▁resolve	-10.4874
▁weight	-10.4877
▁warming	-10.4879
▁Silver	-10.4888
rmy	-10.4892
▁slide	-10.4893
17	-10.4904
genetic	-10.4908
▁metal	-10.4926
▁Need	-10.4928
▁rolling	-10.494
▁witness	-10.4941
▁slower	-10.4943
▁Mary	-10.4947
▁semifinal	-10.4957
▁Rate	-10.4975
click	-10.4976
▁emba	-10.4988
den	-10.5019
▁mat	-10.5024
▁Cal	-10.5036
how	-10.5058
likely	-10.5073
efinition	-10.5086
▁Fee	-10.5096
etch	-10.5118
▁stepp	-10.512
▁Van	-10.5148
▁produc	-10.5157
▁awaited	-10.5159
▁Winn	-10.5179
▁diplomat	-10.5182
pposition	-10.5209
▁Yu	-10.5214
160	-10.5223
rank	-10.5227
auke	-10.5236
ena	-10.5244
▁39	-10.5246
ique	-10.5254
ily	-10.5258
MC	-10.5283
Money	-10.5316
special	-10.5317
Wednesday	-10.5318
Nations	-10.533
▁Sue	-10.5352
▁capture	-10.5353
tomo	-10.5357
▁receive	-10.5361
▁Settle	-10.5363
verage	-10.5373
▁retire	-10.5396
▁Janu	-10.5397
anufacturing	-10.5398
ortgage	-10.5398
JNJ	-10.5399
GDT	-10.5399
▁neighbor	-10.5399
▁thrill	-10.5399
stronomers	-10.5399
▁ATLANTA	-10.5399
▁Analyst	-10.5399
▁Argentina	-10.5399
▁Attorney	-10.5399
▁Chairman	-10.5399
▁Continues	-10.5399
▁Council	-10.5399
▁Cowboys	-10.5399
▁DHAKA	-10.5399
▁Explosion	-10.5399
▁Family	-10.5399
▁HBOS	-10.5399
▁Islamabad	-10.5399
▁Xiaoping	-10.5399
▁assistant	-10.5399
▁channel	-10.5399
▁critics	-10.5399
▁driving	-10.5399
▁eagerly	-10.5399
▁escalating	-10.5399
▁expense	-10.5399
▁initiative	-10.5399
▁mortar	-10.5399
▁mosque	-10.5399
▁northeast	-10.5399
▁outbreak	-10.5399
▁particular	-10.5399
▁responsible	-10.5399
▁steroid	-10.5399
▁territory	-10.5399
Bernanke	-10.5399
MSFT	-10.5399
▁Follow	-10.5399
▁Harris	-10.5399
▁Program	-10.5399
▁cluster	-10.5399
▁condemn	-10.5399
▁devastat	-10.5399
▁watchdog	-10.5399
▁Embassy	-10.5399
▁margin	-10.5399
▁scrambl	-10.5399
▁Concern	-10.5399
▁Miami	-10.5399
▁Crocker	-10.5399
▁Lawsuit	-10.5399
▁Serbia	-10.5399
▁sitting	-10.5399
▁Federation	-10.5399
▁wholesale	-10.5399
▁Foot	-10.5399
▁Linksys	-10.5399
▁Twenty	-10.5399
▁Corporation	-10.5399
▁Movie	-10.5399
▁GOP	-10.5399
▁either	-10.5399
▁text	-10.5399
▁joy	-10.5399
▁mother	-10.5399
▁Sweden	-10.5399
▁leap	-10.5399
▁split	-10.5399
▁boat	-10.5399
▁appoint	-10.5399
▁Why	-10.5399
▁scene	-10.5399
quality	-10.5399
▁hip	-10.5399
▁surface	-10.5399
▁calm	-10.5399
▁Freddie	-10.5399
▁desert	-10.5399
▁preview	-10.54
▁Indies	-10.54
▁select	-10.5401
preceden	-10.5401
▁different	-10.5401
▁facility	-10.5401
▁Oslo	-10.5401
▁intend	-10.5402
▁prize	-10.5402
▁Peterson	-10.5402
▁tourist	-10.5403
▁1980	-10.5404
▁Juni	-10.5404
▁showdown	-10.5404
▁Spend	-10.5405
▁status	-10.5405
▁RBI	-10.5406
▁arrival	-10.5406
▁1-1	-10.5407
▁baseman	-10.5408
▁rocket	-10.5409
▁upheld	-10.5409
▁concluded	-10.541
▁Murd	-10.541
nathan	-10.541
▁Strip	-10.5412
▁89	-10.5414
▁Buff	-10.5415
torage	-10.5416
▁Brand	-10.5416
eera	-10.5419
▁68	-10.542
▁lineup	-10.542
▁Tool	-10.5421
OSE	-10.5423
▁Corn	-10.5424
▁dug	-10.5425
▁Pressure	-10.5427
▁contribut	-10.5428
▁topple	-10.5429
TD	-10.5433
▁required	-10.5434
▁School	-10.5439
▁Hack	-10.5441
action	-10.5445
▁vulnerabilit	-10.5449
▁Bio	-10.5462
▁granted	-10.5468
▁resigned	-10.5469
▁settler	-10.5472
▁RF	-10.5473
▁overall	-10.5475
▁33	-10.5476
▁presen	-10.5481
▁commissioner	-10.5483
▁eliminated	-10.5489
xim	-10.5493
▁carrie	-10.5498
USA	-10.5498
▁fur	-10.5499
▁widely	-10.5508
atie	-10.5508
▁suspect	-10.5509
▁threatening	-10.5513
▁cast	-10.5518
▁dominated	-10.5518
oul	-10.5521
asser	-10.5522
▁mainframe	-10.5524
mally	-10.5526
▁declined	-10.5528
▁artist	-10.5531
tension	-10.5534
▁flee	-10.5538
▁Roman	-10.5538
▁insisted	-10.5539
▁spinn	-10.5544
ince	-10.5546
▁striker	-10.5549
▁believed	-10.5559
trial	-10.5573
▁earned	-10.5579
▁signaled	-10.5586
toum	-10.5588
▁street	-10.5618
▁tank	-10.5627
▁Mah	-10.5638
▁improvement	-10.564
Shar	-10.5679
▁emb	-10.5681
15	-10.5701
▁prisoner	-10.5727
kil	-10.5728
▁launche	-10.5731
ravag	-10.574
▁passing	-10.574
▁wear	-10.5749
▁Kha	-10.5756
▁mostly	-10.5757
rina	-10.5788
▁format	-10.5792
night	-10.5795
▁declar	-10.5814
▁Dec	-10.5819
VER	-10.5821
▁Zi	-10.5835
▁programme	-10.5837
hich	-10.5843
▁MI	-10.5851
▁threaten	-10.5858
▁Gre	-10.5862
▁Via	-10.5862
▁fence	-10.5887
flation	-10.5932
▁Romania	-10.5939
ola	-10.5951
▁Ram	-10.5953
8;	-10.5958
▁Creat	-10.5971
minute	-10.5983
distance	-10.5983
Shell	-10.5984
million	-10.5985
Korea	-10.5985
Tuesday	-10.5985
This	-10.5986
Time	-10.5992
RL	-10.6
box	-10.6027
hard	-10.6036
gging	-10.6042
▁Sharp	-10.6045
AND	-10.6046
▁throw	-10.6049
creen	-10.6054
tail	-10.6056
▁\$8	-10.6059
▁Communi	-10.606
atteries	-10.6063
but	-10.6065
WORLD	-10.6066
▁Authority	-10.6066
▁Broker	-10.6066
▁Dozens	-10.6066
▁Emmons	-10.6066
▁Kuwait	-10.6066
▁Military	-10.6066
▁Napster	-10.6066
▁Ogunleye	-10.6066
▁chemical	-10.6066
▁combining	-10.6066
▁cyclist	-10.6066
▁exclusive	-10.6066
▁financing	-10.6066
▁pattern	-10.6066
▁represent	-10.6066
▁traditional	-10.6066
▁yield	-10.6066
▁Daiei	-10.6066
▁Environment	-10.6066
▁Management	-10.6066
▁Newcastle	-10.6066
▁Nielsen	-10.6066
▁Unveil	-10.6066
▁congestion	-10.6066
▁deputy	-10.6066
▁intense	-10.6066
▁landslides	-10.6066
▁spirit	-10.6066
▁visual	-10.6066
▁Right	-10.6066
▁Senator	-10.6066
▁Thomas	-10.6066
▁maintain	-10.6066
▁offensive	-10.6066
▁sentiment	-10.6066
▁guide	-10.6066
▁Prison	-10.6066
▁Virus	-10.6066
▁Index	-10.6066
▁Tampa	-10.6066
▁floor	-10.6066
▁Defeat	-10.6066
▁Audit	-10.6066
▁Finance	-10.6066
▁Nestle	-10.6066
wicket	-10.6066
▁spammers	-10.6066
▁woo	-10.6066
▁overseas	-10.6066
▁Finish	-10.6066
stood	-10.6066
llip	-10.6066
pillar	-10.6066
▁animal	-10.6066
▁Garen	-10.6066
▁broadcast	-10.6066
▁Box	-10.6066
▁hint	-10.6066
▁speculat	-10.6066
▁Sheik	-10.6067
▁Haiti	-10.6067
▁MSN	-10.6067
▁BASE	-10.6067
▁Scotland	-10.6067
▁Accu	-10.6067
▁copie	-10.6067
▁Download	-10.6067
▁7.2	-10.6068
▁1,500	-10.6068
▁brokerage	-10.6068
▁Increase	-10.6068
▁humanit	-10.6068
▁Lift	-10.6068
▁Fool	-10.6068
▁transaction	-10.6068
▁Key	-10.6068
▁reduction	-10.6068
▁cooperation	-10.6069
▁eventual	-10.6069
▁birthday	-10.6069
▁January	-10.6069
▁shape	-10.6069
▁tree	-10.607
▁gambl	-10.607
▁plunge	-10.607
cost	-10.6072
▁Grant	-10.6072
▁hopeful	-10.6072
open	-10.6074
▁Grow	-10.6075
▁Season	-10.6076
▁Poll	-10.6076
▁bitter	-10.6076
▁strengthen	-10.6077
▁#36;8	-10.6078
▁playoff	-10.6079
▁Settlement	-10.608
▁shortage	-10.608
▁Hope	-10.6083
Donald	-10.6083
▁enhance	-10.6085
▁Rob	-10.6088
burg	-10.6089
▁flow	-10.609
▁2001	-10.6092
▁warm	-10.6094
▁Motion	-10.6094
▁Sky	-10.6095
▁app	-10.6096
▁Workers	-10.6096
Paper	-10.6097
▁Teen	-10.6097
▁era	-10.6098
Jaz	-10.61
▁Sex	-10.6106
INE	-10.6109
▁gap	-10.611
▁west	-10.611
aji	-10.6111
▁Atlantic	-10.6115
▁dismissed	-10.6117
▁simple	-10.6119
▁pen	-10.6122
▁Bud	-10.6134
55	-10.6138
▁Malaysian	-10.6142
ookie	-10.6148
▁Score	-10.6151
▁Station	-10.6153
▁anger	-10.6174
abre	-10.6176
▁celebrat	-10.6182
peer	-10.6185
UALA	-10.6195
▁factor	-10.6196
▁miner	-10.6211
▁advisor	-10.6211
▁Kit	-10.6213
▁Mist	-10.6214
ancy	-10.6218
EW	-10.6228
▁tru	-10.623
▁bat	-10.624
itis	-10.625
CN	-10.6253
disclosed	-10.6261
▁tied	-10.6262
arity	-10.6264
▁Core	-10.6323
▁door	-10.6324
▁whole	-10.6324
▁victim	-10.6332
▁Champion	-10.6336
▁flaw	-10.6339
▁scientist	-10.6345
▁mini	-10.6357
thre	-10.6367
▁processor	-10.6407
▁holi	-10.6422
elect	-10.6434
putter	-10.6446
oma	-10.6454
umber	-10.6466
▁45	-10.6485
▁ON	-10.6504
avor	-10.6517
▁snap	-10.6521
▁300	-10.6543
▁researcher	-10.6545
▁admit	-10.6557
▁spin	-10.6577
MD	-10.6586
not	-10.6603
▁IE	-10.6607
▁imag	-10.6615
▁adapt	-10.6631
sign	-10.6686
▁abus	-10.6692
Source	-10.6696
▁meteor	-10.6697
fund	-10.6699
wind	-10.6699
biggest	-10.6699
develop	-10.6699
with	-10.67
making	-10.6703
spam	-10.6705
level	-10.6709
▁valu	-10.6709
medal	-10.6712
rock	-10.6716
▁arch	-10.6731
▁Trans	-10.6758
▁Mal	-10.6761
▁gro	-10.6762
bound	-10.6772
▁explor	-10.6773
▁difficult	-10.6774
▁scienti	-10.6774
uzz	-10.6775
condition	-10.6777
employ	-10.6779
hitti	-10.6779
FDX	-10.678
UAIR	-10.678
▁#14	-10.678
▁Progress	-10.678
▁Schroeder	-10.678
▁Travel	-10.678
▁recruit	-10.678
▁thumb	-10.678
*	-10.678
▁AKRON	-10.678
▁Allawi	-10.678
▁Barclays	-10.678
▁Components	-10.678
▁Dhaka	-10.678
▁Economy	-10.678
▁Illinois	-10.678
▁Rumsfeld	-10.678
▁Shaukat	-10.678
▁Socialist	-10.678
▁Softball	-10.678
▁Springbok	-10.678
▁Technologies	-10.678
▁Virtual	-10.678
▁Zimbabwe	-10.678
▁accident	-10.678
▁achieve	-10.678
▁adjust	-10.678
▁advantage	-10.678
▁bodyguard	-10.678
▁convoy	-10.678
▁crystal	-10.678
▁custody	-10.678
▁department	-10.678
▁exhibit	-10.678
▁facilities	-10.678
▁favourite	-10.678
▁imminent	-10.678
▁overshadow	-10.678
▁preliminaries	-10.678
▁providing	-10.678
▁restaurant	-10.678
▁spokeswoman	-10.678
▁temporarily	-10.678
▁temporary	-10.678
▁thieves	-10.678
▁turtle	-10.678
▁university	-10.678
▁volume	-10.678
▁whale	-10.678
COMPUTER	-10.678
Sistani	-10.678
▁#147;	-10.678
▁Chandra	-10.678
▁Holiday	-10.678
▁example	-10.678
▁simulat	-10.678
▁Celtic	-10.678
▁Extend	-10.678
▁Future	-10.678
▁Pension	-10.678
▁Prince	-10.678
▁cloud	-10.678
▁glory	-10.678
▁child	-10.678
▁Hamilton	-10.678
▁fault	-10.678
▁Fresh	-10.678
▁outlets	-10.678
▁task	-10.678
▁Novell	-10.678
▁Alcoa	-10.678
▁Briton	-10.678
▁Focus	-10.678
▁contend	-10.678
▁Seahawks	-10.678
▁Redskin	-10.678
dominant	-10.678
▁ensure	-10.678
▁Utah	-10.678
▁elite	-10.678
▁Annan	-10.678
▁hail	-10.678
▁Crash	-10.678
▁capacity	-10.678
▁relations	-10.6781
▁Contract	-10.6781
▁revolution	-10.6781
▁Safety	-10.6781
▁Henin	-10.6781
▁resources	-10.6781
▁cancer	-10.6781
▁flare	-10.6781
▁crackdown	-10.6781
▁persist	-10.6781
▁Members	-10.6781
▁masterpiece	-10.6781
▁pipeline	-10.6781
▁solve	-10.6781
▁Wild	-10.6782
▁repair	-10.6782
▁favor	-10.6782
▁mask	-10.6782
▁sail	-10.6782
▁Plot	-10.6782
nsurance	-10.6782
▁smart	-10.6782
▁Output	-10.6783
▁dirt	-10.6783
▁Project	-10.6783
▁pounds	-10.6783
ounce	-10.6783
▁Belgian	-10.6783
▁revise	-10.6783
▁label	-10.6783
▁mandate	-10.6784
▁breach	-10.6784
▁BAY	-10.6784
▁everyone	-10.6784
▁strange	-10.6785
▁Development	-10.6785
▁Institute	-10.6786
▁liber	-10.6786
▁hair	-10.6787
▁loom	-10.6787
▁hide	-10.6787
▁Brazilian	-10.6788
▁lab	-10.6789
▁celebration	-10.679
▁overcome	-10.679
▁Adam	-10.679
▁highlight	-10.6791
▁Rich	-10.6793
rophy	-10.6794
▁Island	-10.6795
▁shop	-10.6795
organiz	-10.6797
▁Road	-10.6801
▁successor	-10.6803
▁hat	-10.6805
▁Builder	-10.6806
▁restore	-10.6806
say	-10.681
▁stumbl	-10.6812
▁Nick	-10.6816
▁alone	-10.6818
▁surrounding	-10.682
KI	-10.682
▁couple	-10.6822
▁AU	-10.6824
▁sometime	-10.6826
▁fame	-10.683
▁Flaw	-10.684
▁Event	-10.6841
▁41	-10.6842
▁erupted	-10.6843
▁Stop	-10.6843
▁Building	-10.6847
▁movement	-10.6847
▁Rain	-10.6851
▁investigator	-10.6858
▁Rout	-10.6858
▁Doom	-10.686
last	-10.6862
ila	-10.6864
▁Source	-10.6864
ology	-10.6865
dot	-10.6868
▁Joe	-10.6873
▁internal	-10.6875
▁Gla	-10.6875
▁suite	-10.6884
tty	-10.6885
▁style	-10.6888
▁Gam	-10.6888
gling	-10.689
modul	-10.6892
▁Mount	-10.6897
▁swapp	-10.6899
▁Here	-10.69
▁love	-10.6911
unning	-10.6911
more	-10.6922
fare	-10.6932
▁Bangladeshi	-10.6932
▁swor	-10.694
ogue	-10.6944
utomaker	-10.6955
▁feeling	-10.6964
▁ranking	-10.6964
▁Hand	-10.6966
▁torn	-10.6967
▁dealers	-10.6972
corruption	-10.6984
Net	-10.6989
▁comfort	-10.6992
▁ability	-10.6997
hitting	-10.7002
▁smaller	-10.701
▁integrate	-10.7011
▁farm	-10.7025
▁Rat	-10.7029
udge	-10.7031
▁surf	-10.7031
xic	-10.7034
▁Tie	-10.7039
ENT	-10.705
▁Marin	-10.7052
illionaire	-10.7066
hill	-10.7086
ogen	-10.7086
vali	-10.709
mph	-10.7097
▁remove	-10.7106
▁hundred	-10.7108
hase	-10.7115
ivity	-10.7116
▁undergo	-10.7125
▁Bali	-10.7128
▁Trad	-10.7139
▁Cit	-10.7152
▁trac	-10.7192
eck	-10.7207
▁Terr	-10.7221
▁Molin	-10.7263
▁72	-10.7269
2.5	-10.7287
ET	-10.7307
utomatic	-10.7381
ncient	-10.7388
attered	-10.7408
▁mod	-10.7408
▁command	-10.741
▁spec	-10.7412
▁Sale	-10.7421
▁restructur	-10.7432
▁disappoint	-10.7432
ibility	-10.7434
hang	-10.7438
▁eliminat	-10.7438
▁29	-10.7447
▁FOR	-10.7448
radic	-10.7458
produc	-10.7467
generation	-10.7467
Quarter	-10.7467
spread	-10.7467
charge	-10.7468
dollar	-10.7468
robot	-10.7468
business	-10.7468
Internet	-10.7468
price	-10.747
brand	-10.7476
market	-10.748
bby	-10.7499
SCH	-10.7508
▁Scot	-10.7513
party	-10.7528
door	-10.753
▁relative	-10.753
▁Journal	-10.7538
▁Scienti	-10.7543
▁decide	-10.7544
▁Range	-10.7547
▁cease	-10.7548
zuki	-10.7548
▁license	-10.7548
▁Fernand	-10.7548
▁restrict	-10.7549
▁Gymnast	-10.7549
SAFM	-10.7549
holesale	-10.7549
KMRT	-10.7549
Hardenne	-10.7549
dvertisers	-10.7549
▁802.11	-10.7549
▁April	-10.7549
▁Channel	-10.7549
▁GUANTANAMO	-10.7549
▁Guillen	-10.7549
▁Instead	-10.7549
▁Investment	-10.7549
▁KABUL	-10.7549
▁Nottingham	-10.7549
▁PHILADELPHIA	-10.7549
▁Pittsburgh	-10.7549
▁Referendum	-10.7549
▁Regulator	-10.7549
▁SEOUL	-10.7549
▁Scandal	-10.7549
▁Swimming	-10.7549
▁Symantec	-10.7549
▁Thunderbird	-10.7549
▁associate	-10.7549
▁breaststroke	-10.7549
▁bundle	-10.7549
▁climate	-10.7549
▁degree	-10.7549
▁disappear	-10.7549
▁envoy	-10.7549
▁happy	-10.7549
▁hockey	-10.7549
▁length	-10.7549
▁politics	-10.7549
▁similar	-10.7549
▁symbol	-10.7549
▁Access	-10.7549
▁Cyberonics	-10.7549
▁Northeast	-10.7549
▁Philip	-10.7549
▁Veteran	-10.7549
▁Wisconsin	-10.7549
▁ethnic	-10.7549
▁franchise	-10.7549
commerce	-10.7549
▁Celebr	-10.7549
▁Doctor	-10.7549
▁Fuji	-10.7549
▁Gagne	-10.7549
▁froze	-10.7549
▁genetically	-10.7549
▁hunger	-10.7549
▁ignor	-10.7549
▁Staff	-10.7549
▁sleep	-10.7549
▁square	-10.7549
▁adult	-10.7549
▁Prize	-10.7549
▁Ocean	-10.7549
▁shoppers	-10.7549
▁motion	-10.7549
▁contest	-10.7549
▁destin	-10.7549
▁terminate	-10.7549
Interfax	-10.7549
Competition	-10.7549
▁aftermath	-10.7549
▁Libya	-10.7549
▁vaccine	-10.7549
▁Cross	-10.755
▁desire	-10.755
▁instrument	-10.755
▁mysteri	-10.755
▁sexual	-10.755
▁7-5	-10.755
WMT	-10.755
▁Visit	-10.755
outheast	-10.755
▁heavyweight	-10.755
▁shattered	-10.755
▁Racing	-10.755
▁paperwork	-10.755
▁anything	-10.755
▁procure	-10.755
▁weakness	-10.7551
▁loose	-10.7551
▁republic	-10.7552
▁Liber	-10.7552
▁memory	-10.7552
UPI	-10.7552
▁resist	-10.7553
▁proceedings	-10.7553
▁legend	-10.7553
▁Cheap	-10.7554
▁retirement	-10.7554
▁basic	-10.7554
▁peacekeepers	-10.7554
▁Chargers	-10.7555
▁civilian	-10.7555
▁slowdown	-10.7555
▁5-0	-10.7555
▁difficulties	-10.7555
▁Hard	-10.7556
▁steel	-10.7556
▁trust	-10.7556
▁Operation	-10.7556
lusive	-10.7556
▁Kenya	-10.7557
▁Palm	-10.7557
▁ripp	-10.7557
▁coverage	-10.7557
▁Risk	-10.7558
▁swim	-10.7558
▁exploration	-10.7559
▁Journalist	-10.756
▁disciplin	-10.756
▁App	-10.7561
▁Bust	-10.7562
▁dragg	-10.7562
▁Piet	-10.7563
▁ETA	-10.7563
▁scare	-10.7563
▁crack	-10.7565
▁specific	-10.7566
▁preparation	-10.7566
▁argu	-10.7567
▁Massu	-10.7568
▁worse	-10.757
▁path	-10.7572
▁Poor	-10.7572
▁Plane	-10.7573
▁Port	-10.7574
▁Roll	-10.7574
▁Walker	-10.7576
ierce	-10.7577
▁react	-10.7577
▁thrown	-10.7577
▁pink	-10.7579
▁someone	-10.7582
▁battery	-10.7586
▁Customer	-10.7586
▁Jim	-10.7586
▁environmental	-10.7587
▁Coach	-10.7588
▁Indy	-10.7589
▁Qw	-10.7589
▁lightest	-10.7589
▁Inside	-10.7597
▁Marion	-10.7597
▁aggressive	-10.7597
▁patches	-10.7599
ONG	-10.7602
▁unless	-10.7603
ably	-10.7605
▁Try	-10.7609
▁46	-10.7614
cepti	-10.7616
▁Lou	-10.7616
lome	-10.7617
▁viruses	-10.7618
▁Spr	-10.7618
▁batter	-10.762
▁Must	-10.7631
▁Song	-10.7635
▁pile	-10.7637
herald	-10.7664
that	-10.7669
▁Trucker	-10.7672
▁adviser	-10.7677
▁logg	-10.7681
asque	-10.7687
▁hum	-10.7696
▁Moon	-10.7725
nel	-10.7728
Max	-10.7733
▁capp	-10.7738
VAL	-10.7742
▁Tru	-10.7743
▁alter	-10.7745
▁fit	-10.7745
apping	-10.7764
▁export	-10.7768
utu	-10.7783
mbled	-10.7786
▁Aim	-10.7798
residential	-10.7808
aptors	-10.7816
tronic	-10.7839
▁trie	-10.7881
▁BOS	-10.7892
▁rape	-10.7897
▁Troop	-10.7936
▁moon	-10.7938
ization	-10.7938
apti	-10.7973
rena	-10.7992
▁spoke	-10.8014
▁Sum	-10.8037
ago	-10.8041
endan	-10.8057
▁Mel	-10.8124
▁announc	-10.8131
Meter	-10.8132
▁Severa	-10.8147
leaguer	-10.816
CHA	-10.8172
manda	-10.8183
▁dominat	-10.8205
▁slid	-10.8215
Most	-10.8232
ification	-10.8238
ficial	-10.8255
ologist	-10.8282
weight	-10.8299
Doom	-10.8299
Valley	-10.83
Mobile	-10.8301
security	-10.8302
billion	-10.8302
free	-10.8303
flight	-10.8315
▁enable	-10.8323
▁feat	-10.8324
▁require	-10.8335
match	-10.8335
▁strateg	-10.8347
▁Launche	-10.835
▁Desp	-10.8355
▁2-1	-10.8362
xpansion	-10.8379
mbra	-10.838
cript	-10.838
esidents	-10.8382
▁advice	-10.8382
Montenegro	-10.8382
▁Arrest	-10.8382
▁Avoid	-10.8382
▁Bulgaria	-10.8382
▁Catholic	-10.8382
▁Discount	-10.8382
▁Estimate	-10.8382
▁Evidence	-10.8382
▁Greenspan	-10.8382
▁Jasikevicius	-10.8382
▁Kazaa	-10.8382
▁Korzhanenko	-10.8382
▁Lourdes	-10.8382
▁Patriots	-10.8382
▁Pyongyang	-10.8382
▁Satellite	-10.8382
▁Southampton	-10.8382
▁Spaniard	-10.8382
▁Struggl	-10.8382
▁Woolworths	-10.8382
▁advertisement	-10.8382
▁alternative	-10.8382
▁combination	-10.8382
▁devot	-10.8382
▁equestrian	-10.8382
▁hazard	-10.8382
▁hijack	-10.8382
▁ocean	-10.8382
▁operative	-10.8382
▁opportunity	-10.8382
▁penalty	-10.8382
▁podium	-10.8382
▁psychologi	-10.8382
▁resolution	-10.8382
▁subscription	-10.8382
▁surpass	-10.8382
▁telephony	-10.8382
▁ultimat	-10.8382
▁universities	-10.8382
▁Santana	-10.8382
▁prescription	-10.8382
ordinary	-10.8382
▁Craig	-10.8382
CSFB	-10.8382
▁glass	-10.8382
▁Import	-10.8382
▁MONT	-10.8382
▁Sutton	-10.8382
▁inspect	-10.8382
▁northwest	-10.8382
▁punish	-10.8382
▁rifle	-10.8382
▁praise	-10.8382
▁print	-10.8382
▁compound	-10.8383
▁revive	-10.8383
▁pride	-10.8383
▁Limit	-10.8383
▁lacklust	-10.8383
▁Remain	-10.8383
▁earth	-10.8383
▁consult	-10.8383
▁blind	-10.8383
▁GREE	-10.8383
▁Doesn	-10.8383
▁unaba	-10.8383
▁dispos	-10.8383
▁ballot	-10.8383
▁insurgents	-10.8383
▁compromise	-10.8383
▁Mixed	-10.8383
▁Short	-10.8383
▁expos	-10.8383
▁Jean	-10.8383
▁requirements	-10.8383
▁kidney	-10.8383
▁employer	-10.8384
▁cheat	-10.8384
▁buri	-10.8384
▁1.0	-10.8384
▁tortur	-10.8384
▁Daily	-10.8384
▁Intelsat	-10.8384
▁Maryland	-10.8384
.\(	-10.8385
escription	-10.8385
▁suspicious	-10.8385
▁Christian	-10.8385
▁automat	-10.8385
▁insurgency	-10.8386
▁laid	-10.8386
▁Midway	-10.8386
agle	-10.8386
▁authority	-10.8386
▁Acquire	-10.8387
▁bidding	-10.8388
▁hardware	-10.8389
▁Export	-10.8389
▁Threaten	-10.839
▁Rays	-10.8391
▁bigger	-10.8391
▁satisfaction	-10.8394
▁Deep	-10.8394
▁Place	-10.8394
▁View	-10.8395
▁Asda	-10.8396
▁Worrie	-10.8398
▁promotion	-10.8398
ACI	-10.8399
blaz	-10.84
▁2009	-10.84
▁tighten	-10.8401
▁Rail	-10.8402
▁Mediacom	-10.8403
ditch	-10.8404
▁Swisscom	-10.8405
competitive	-10.8405
▁Foundation	-10.8405
▁letter	-10.8405
▁kidnappers	-10.8405
▁dominate	-10.8407
identifi	-10.8407
▁partial	-10.8408
▁Vow	-10.8408
orporate	-10.8408
▁relatively	-10.8409
▁reversed	-10.8409
▁entry	-10.841
▁Cheney	-10.841
▁collection	-10.841
▁Message	-10.841
▁grab	-10.8411
▁truckers	-10.8411
mpact	-10.8412
▁Sharply	-10.8414
▁century	-10.8416
FORD	-10.8418
▁\$11	-10.8419
▁campus	-10.8419
▁\$24	-10.8419
▁Patch	-10.8419
pound	-10.8422
▁Sprinters	-10.8425
▁steal	-10.8428
▁tribe	-10.8432
▁Book	-10.8433
▁Join	-10.8439
▁Kidnappe	-10.844
▁62	-10.8447
▁Beng	-10.845
▁accusation	-10.845
▁breath	-10.8455
▁Half	-10.8456
▁protesters	-10.8465
cantil	-10.8467
iege	-10.8472
▁dog	-10.848
▁withdrawal	-10.8482
▁flie	-10.8483
▁defy	-10.8485
KO	-10.8486
▁Golden	-10.8488
▁scan	-10.8493
ody	-10.8506
▁indefinite	-10.8512
HAL	-10.8513
held	-10.854
▁Greg	-10.8543
▁Vie	-10.8549
▁settled	-10.8555
OME	-10.8559
tlan	-10.8561
▁reporters	-10.8565
▁bare	-10.8595
▁broker	-10.8605
about	-10.8629
lace	-10.863
▁seal	-10.864
▁Camp	-10.8656
▁cave	-10.8657
▁killer	-10.8661
▁dipp	-10.8667
▁triple	-10.8667
▁Tak	-10.87
▁Mann	-10.8743
SAL	-10.8746
▁\$75	-10.8749
covered	-10.8775
▁notice	-10.8794
▁birdie	-10.8796
▁danc	-10.8835
▁document	-10.8842
▁shareholder	-10.8842
▁parad	-10.8845
▁expert	-10.8849
▁Yankee	-10.8851
▁blam	-10.8859
nterview	-10.887
Mail	-10.8874
▁remov	-10.8887
▁mil	-10.8914
▁Wor	-10.8926
NHE	-10.8929
EST	-10.8932
▁circle	-10.8932
▁Live	-10.894
ixe	-10.8941
▁advis	-10.8948
▁MAR	-10.8973
▁Runn	-10.8996
owever	-10.9021
▁Pou	-10.9031
standing	-10.9046
umbling	-10.9102
49	-10.9115
▁130	-10.9128
session	-10.914
vor	-10.914
CAT	-10.9158
▁qualify	-10.9175
▁shelv	-10.918
friendly	-10.9209
profile	-10.9209
terror	-10.921
earlier	-10.9211
growing	-10.9211
rival	-10.9211
Microsoft	-10.9211
government	-10.9211
world	-10.9211
official	-10.9212
statement	-10.9235
▁wrap	-10.9237
▁Radica	-10.924
share	-10.925
▁swap	-10.925
▁victor	-10.9257
▁significant	-10.9267
▁bott	-10.9275
cream	-10.9278
name	-10.9281
Bell	-10.9282
▁Threat	-10.9283
ntertainment	-10.9288
▁wri	-10.9289
ronze	-10.9289
▁trans	-10.9289
▁Qual	-10.9291
▁compensat	-10.9292
▁Account	-10.9292
▁Controvers	-10.9292
▁Taipei	-10.9292
▁respond	-10.9292
NetRatings	-10.9292
▁#36;47	-10.9292
▁89-53	-10.9292
▁94-90	-10.9292
▁Approve	-10.9292
▁Arbitr	-10.9292
▁BERLIN	-10.9292
▁Bridge	-10.9292
▁Cabrera	-10.9292
▁ContentGuard	-10.9292
▁Falluja	-10.9292
▁Gebrselassie	-10.9292
▁Livermore	-10.9292
▁Loaiza	-10.9292
▁Norwegian	-10.9292
▁Ortiz	-10.9292
▁Refugee	-10.9292
▁Sampanis	-10.9292
▁Studio	-10.9292
▁Supply	-10.9292
▁Switzerland	-10.9292
▁Yield	-10.9292
▁acquitt	-10.9292
▁advocat	-10.9292
▁appetite	-10.9292
▁choose	-10.9292
▁communications	-10.9292
▁concession	-10.9292
▁correct	-10.9292
▁dialysis	-10.9292
▁experiment	-10.9292
▁identify	-10.9292
▁incident	-10.9292
▁intensified	-10.9292
▁lucrative	-10.9292
▁occurr	-10.9292
▁pioneer	-10.9292
▁qualifier	-10.9292
▁radioactive	-10.9292
▁succeed	-10.9292
▁transition	-10.9292
▁voluntar	-10.9292
▁Decision	-10.9292
▁Express	-10.9292
▁Governor	-10.9292
▁Hurdle	-10.9292
▁Perseid	-10.9292
▁Should	-10.9292
▁descend	-10.9292
▁Dispute	-10.9292
▁displaced	-10.9292
▁industries	-10.9292
▁Lewis	-10.9292
▁Nelson	-10.9292
▁hammer	-10.9292
▁Trail	-10.9292
▁burst	-10.9292
▁edition	-10.9292
▁Berlin	-10.9292
▁Guide	-10.9292
▁Neuro	-10.9292
▁regain	-10.9292
▁Airbus	-10.9292
▁Akron	-10.9292
▁Cycl	-10.9292
▁affair	-10.9292
▁talent	-10.9292
hydro	-10.9292
▁Hilton	-10.9292
▁hottest	-10.9292
▁Northwest	-10.9292
motive	-10.9292
▁Rossi	-10.9292
▁Draw	-10.9292
▁console	-10.9292
▁creation	-10.9292
▁Kastor	-10.9292
▁Oval	-10.9292
▁clinic	-10.9292
▁doomed	-10.9292
▁Hitler	-10.9292
▁changing	-10.9292
▁IOC	-10.9292
Logger	-10.9292
▁Kerri	-10.9292
▁cloning	-10.9292
▁AMP	-10.9292
▁Doug	-10.9292
▁Prepare	-10.9292
HNZ	-10.9292
▁Budget	-10.9292
▁Heart	-10.9292
▁Oct	-10.9292
▁gaming	-10.9292
▁Enter	-10.9293
scape	-10.9293
▁skeptic	-10.9293
▁Finn	-10.9293
▁aviation	-10.9293
▁taste	-10.9294
▁Hasina	-10.9294
ognos	-10.9294
▁smash	-10.9294
▁blog	-10.9294
▁Hurt	-10.9294
▁impressive	-10.9295
▁dangerous	-10.9295
▁buzz	-10.9295
▁Tyle	-10.9295
▁productivity	-10.9295
▁substantial	-10.9295
▁district	-10.9295
▁lawmaker	-10.9295
▁Devil	-10.9295
▁Rebound	-10.9296
▁chose	-10.9297
▁Yuli	-10.9297
▁snag	-10.9297
▁550	-10.9298
▁resignation	-10.9298
▁Weak	-10.9299
▁Lind	-10.9299
."\\"	-10.9299
▁enem	-10.9299
▁Protocol	-10.93
▁deployment	-10.93
▁Discover	-10.93
▁items	-10.93
▁columnist	-10.9301
▁Extra	-10.9301
▁damp	-10.9302
▁shade	-10.9302
▁spotted	-10.9303
▁Clon	-10.9303
▁Que	-10.9303
▁bump	-10.9305
▁yards	-10.9305
▁5-4	-10.9305
▁9.8	-10.9306
▁hike	-10.9306
▁Worm	-10.9306
▁layoff	-10.9307
INTC	-10.9307
▁Tough	-10.9308
drum	-10.9309
TED	-10.9309
▁headline	-10.931
▁Stake	-10.931
TOY	-10.931
▁Match	-10.9311
▁cove	-10.9311
▁opt	-10.9315
▁significantly	-10.9316
▁Wash	-10.9317
▁criticized	-10.9317
▁Ahm	-10.9317
▁underway	-10.9317
▁Chain	-10.932
▁gli	-10.9322
▁avert	-10.9322
▁slamm	-10.9323
▁Penn	-10.9324
▁nest	-10.9326
▁outfield	-10.9326
▁homeland	-10.9327
▁Jur	-10.9329
▁\$16	-10.933
▁Economi	-10.9331
▁auditors	-10.9333
▁selection	-10.9334
▁SEATTLE	-10.9336
▁Cave	-10.9337
▁Driv	-10.9339
olf	-10.9339
▁Walk	-10.9339
▁Defend	-10.9342
▁Cook	-10.9344
▁Cash	-10.9346
anza	-10.9348
▁Rare	-10.9349
▁tim	-10.9357
OQ	-10.9359
▁outline	-10.9365
▁purchas	-10.937
▁eve	-10.9375
▁math	-10.9375
▁Peres	-10.9376
ogram	-10.9377
▁Rand	-10.9382
▁Crack	-10.9391
TRO	-10.94
▁rumble	-10.9408
▁larger	-10.9409
omic	-10.9433
▁arra	-10.9437
rawl	-10.9443
▁Hike	-10.9454
NET	-10.946
brough	-10.9464
Tower	-10.9465
.01	-10.9471
ivision	-10.9475
▁refinanc	-10.9493
razi	-10.9521
ALL	-10.9537
▁brac	-10.9552
▁fenc	-10.958
▁heavi	-10.962
▁150	-10.9634
▁sentenc	-10.9635
▁router	-10.9641
Fast	-10.9684
▁unlike	-10.9715
itte	-10.9725
▁Warm	-10.9753
dicated	-10.9755
migration	-10.9759
Domini	-10.9773
▁Lama	-10.9773
▁battl	-10.9777
▁Save	-10.9787
tract	-10.9794
▁Christ	-10.9799
▁write	-10.9807
itive	-10.9815
▁tag	-10.9828
▁classic	-10.9832
reestyle	-10.9837
▁detail	-10.9845
hiro	-10.985
▁Giant	-10.985
▁analyst	-10.985
▁\$40	-10.9853
▁Airline	-10.9863
4.5	-10.9865
aste	-10.9888
▁Pac	-10.9898
DAL	-10.9909
cular	-10.9923
racking	-10.9923
▁Hail	-10.993
▁introduc	-10.9941
▁Blu	-10.9945
shes	-10.9976
Ches	-10.9989
▁Surge	-11.0021
anned	-11.0048
70	-11.0057
▁indicate	-11.0063
▁Than	-11.0066
▁Bob	-11.0081
self	-11.0103
▁resolv	-11.012
uthorities	-11.0127
ikes	-11.0148
▁Awa	-11.0157
base	-11.0165
▁resign	-11.0181
▁mix	-11.0181
▁Retail	-11.0186
▁grant	-11.0188
▁compos	-11.0194
tribute	-11.0205
foot	-11.0209
anticipated	-11.021
Year	-11.021
front	-11.021
SCO	-11.021
supply	-11.021
China	-11.0211
Google	-11.0211
third	-11.0212
▁Raf	-11.0214
▁manufacture	-11.025
▁cultur	-11.0251
▁custom	-11.0252
▁apparent	-11.0269
▁medic	-11.027
▁Operat	-11.0282
evolution	-11.0285
,500	-11.0286
▁differ	-11.0289
function	-11.0291
ictims	-11.0291
▁mount	-11.0291
abilities	-11.0291
▁impress	-11.0291
▁Trouble	-11.0292
Schwarzenegger	-11.0292
delphia	-11.0292
nonymous	-11.0292
obscure	-11.0292
▁Alitalia	-11.0292
▁Benefit	-11.0292
▁Delegation	-11.0292
▁Desktop	-11.0292
▁Dillard	-11.0292
▁Eriksson	-11.0292
▁Ethiopia	-11.0292
▁Explorer	-11.0292
▁Fridman	-11.0292
▁GENEVA	-11.0292
▁Glenmorangie	-11.0292
▁Grozny	-11.0292
▁Kennedy	-11.0292
▁LUMPUR	-11.0292
▁MADRID	-11.0292
▁McGahee	-11.0292
▁Mexican	-11.0292
▁Morpheus	-11.0292
▁Ontario	-11.0292
▁Ottawa	-11.0292
▁PestPatrol	-11.0292
▁Rathore	-11.0292
▁Sophos	-11.0292
▁Starbucks	-11.0292
▁Success	-11.0292
▁Tehran	-11.0292
▁Thailand	-11.0292
▁Thornton	-11.0292
▁Volleyball	-11.0292
▁Whistl	-11.0292
▁abroad	-11.0292
▁arbitrat	-11.0292
▁arrangement	-11.0292
▁atmosphere	-11.0292
▁backstroke	-11.0292
▁badminton	-11.0292
▁bodies	-11.0292
▁bonuses	-11.0292
▁boycott	-11.0292
▁breakthrough	-11.0292
▁buoy	-11.0292
▁cautious	-11.0292
▁circulat	-11.0292
▁configuration	-11.0292
▁decathlon	-11.0292
▁destructi	-11.0292
▁dominance	-11.0292
▁economist	-11.0292
▁epidemic	-11.0292
▁essential	-11.0292
▁explosive	-11.0292
▁female	-11.0292
▁fulfill	-11.0292
▁identity	-11.0292
▁inaugura	-11.0292
▁misleading	-11.0292
▁neighbour	-11.0292
▁opinion	-11.0292
▁permission	-11.0292
▁policies	-11.0292
▁representative	-11.0292
mbush	-11.0292
spectacular	-11.0292
▁Advertising	-11.0292
▁Crisis	-11.0292
▁Healthcare	-11.0292
▁Itanium	-11.0292
▁Kabul	-11.0292
▁Netgear	-11.0292
▁OSLO	-11.0292
▁Sirius	-11.0292
▁abduct	-11.0292
▁architect	-11.0292
▁brisk	-11.0292
▁particles	-11.0292
▁recommend	-11.0292
▁Country	-11.0292
▁Leonid	-11.0292
▁Relief	-11.0292
▁Strateg	-11.0292
▁otherwise	-11.0292
▁reinforc	-11.0292
▁signature	-11.0292
▁unleash	-11.0292
▁woes	-11.0292
nthrax	-11.0292
▁Column	-11.0292
▁Roundup	-11.0292
▁\$135	-11.0292
▁contact	-11.0292
▁root	-11.0292
iggins	-11.0292
onsortium	-11.0292
solicit	-11.0292
▁Delhi	-11.0292
▁Problem	-11.0292
▁examine	-11.0292
▁royal	-11.0292
▁uniform	-11.0292
▁medium	-11.0292
▁motor	-11.0292
▁nurse	-11.0292
▁Alpha	-11.0292
▁linebacker	-11.0292
▁Mistakes	-11.0292
▁WGC	-11.0292
▁Where	-11.0292
▁mystery	-11.0292
▁section	-11.0292
▁riot	-11.0292
▁stories	-11.0292
▁Merger	-11.0292
▁Pirate	-11.0292
▁rebellion	-11.0292
▁Daniel	-11.0292
▁endanger	-11.0292
▁Adrian	-11.0292
▁prior	-11.0292
▁wealth	-11.0292
▁Opsware	-11.0292
▁grim	-11.0292
▁studie	-11.0292
▁Image	-11.0292
▁THENS	-11.0292
▁afford	-11.0292
▁RED	-11.0292
▁Patent	-11.0292
▁convincing	-11.0292
▁vast	-11.0292
▁amateur	-11.0292
▁ISV	-11.0292
▁repeat	-11.0292
▁Laborator	-11.0292
▁crater	-11.0292
▁Father	-11.0292
▁Mosque	-11.0292
Semit	-11.0292
▁overtake	-11.0292
▁horse	-11.0292
▁Latin	-11.0292
▁preserv	-11.0292
▁spurr	-11.0292
Deutsch	-11.0292
▁Fernandez	-11.0292
▁licens	-11.0292
▁Basra	-11.0293
▁ankle	-11.0293
▁Albert	-11.0293
▁Powell	-11.0293
▁except	-11.0293
▁Quick	-11.0293
▁Deere	-11.0293
▁Johan	-11.0294
▁Burn	-11.0294
▁prostitute	-11.0294
▁Robot	-11.0294
▁Doping	-11.0294
▁felt	-11.0294
▁touchdown	-11.0294
▁chalk	-11.0294
▁handheld	-11.0294
▁nast	-11.0294
▁Factor	-11.0294
nction	-11.0294
▁Ventur	-11.0294
▁brain	-11.0295
▁spyware	-11.0295
▁bull	-11.0295
▁\$120	-11.0295
acteria	-11.0295
▁functions	-11.0295
▁Schuma	-11.0295
▁conserv	-11.0295
▁Massac	-11.0295
▁divers	-11.0296
▁Playoff	-11.0296
▁Appliance	-11.0296
▁marine	-11.0297
▁Protection	-11.0297
▁committed	-11.0297
▁utilit	-11.0297
▁sort	-11.0297
▁KONG	-11.0298
▁wake	-11.0298
▁cor	-11.0298
▁Champ	-11.0299
▁\$108	-11.03
▁Trop	-11.03
▁foul	-11.03
Round	-11.03
▁Pool	-11.03
▁delight	-11.0301
▁Semifinal	-11.0301
▁missile	-11.0302
sensitiv	-11.0302
▁welcom	-11.0303
▁Deport	-11.0304
▁6-1	-11.0304
chip	-11.0304
pathi	-11.0305
▁dismissal	-11.0306
▁siege	-11.0306
▁distributor	-11.0306
▁leadership	-11.0307
▁Tata	-11.0308
▁Frank	-11.0308
▁Terrorist	-11.0308
▁70,000	-11.0309
▁Caus	-11.0309
▁Toward	-11.0311
▁slight	-11.0311
▁5,000	-11.0311
▁broaden	-11.0312
▁Walsh	-11.0312
▁scrap	-11.0312
▁specialist	-11.0312
▁\$20	-11.0313
ugby	-11.0313
erail	-11.0313
▁holdout	-11.0317
vital	-11.0317
utual	-11.0317
▁Production	-11.0318
▁stall	-11.0319
▁Haas	-11.0319
▁combined	-11.0319
▁engaged	-11.0319
▁Yet	-11.0319
▁Beck	-11.032
LAND	-11.0321
▁email	-11.0322
▁isolat	-11.0323
▁4-2	-11.0323
▁convince	-11.0324
▁Action	-11.0325
▁Settler	-11.0328
▁CIA	-11.0329
ONI	-11.0331
leko	-11.0331
▁culture	-11.0332
▁Town	-11.0334
▁gate	-11.0335
▁MAN	-11.0337
quash	-11.0339
▁Ivan	-11.034
▁travelers	-11.0345
▁Inns	-11.035
▁63	-11.0351
▁\$1.1	-11.0357
▁Dick	-11.0358
▁Norm	-11.036
▁Exec	-11.036
logic	-11.0362
▁mention	-11.0362
▁projection	-11.0362
▁duo	-11.0363
▁Packers	-11.0364
TEL	-11.0366
▁pav	-11.0369
▁oversee	-11.037
yourself	-11.0371
▁Mice	-11.0379
plague	-11.0417
hose	-11.0419
▁appro	-11.044
zzling	-11.0471
▁commander	-11.0478
▁Wom	-11.0514
▁Surviv	-11.053
▁rattle	-11.0547
▁Arabia	-11.0558
▁dose	-11.0572
lah	-11.062
ecu	-11.0657
Pass	-11.066
mile	-11.0661
hart	-11.069
▁pou	-11.0747
mercenary	-11.0795
setting	-11.0806
raft	-11.0822
▁Abuse	-11.0829
watch	-11.0889
▁\$150	-11.0894
▁Upset	-11.0932
▁thousand	-11.0962
ANTA	-11.0964
▁inspire	-11.0999
building	-11.1013
▁tall	-11.1044
capable	-11.1073
onstruction	-11.1082
▁participat	-11.1093
▁Actua	-11.1165
▁democrat	-11.1182
Month	-11.1247
azz	-11.1251
▁truc	-11.1254
RY	-11.1271
arev	-11.1274
▁suspend	-11.1293
▁vulnerab	-11.1312
paper	-11.1319
Half	-11.1319
Atlantic	-11.1319
democracy	-11.132
conduct	-11.1321
lockade	-11.1321
focus	-11.1321
control	-11.1322
service	-11.1322
second	-11.1322
Iraq	-11.1322
terrorism	-11.1322
double	-11.1322
wave	-11.1323
income	-11.1323
▁Blog	-11.1325
percent	-11.1333
Jack	-11.1334
start	-11.1344
▁mercenar	-11.1347
fast	-11.1361
patch	-11.1366
▁Bryan	-11.1367
otte	-11.1375
▁immediate	-11.1379
ternal	-11.1381
▁thro	-11.1386
stitute	-11.1391
▁whi	-11.1396
▁availab	-11.1396
▁citizens	-11.1398
▁proceed	-11.1398
▁Magna	-11.14
uilty	-11.1401
▁bankrupt	-11.1402
▁critici	-11.1402
AMAT	-11.1403
interrupt	-11.1403
▁Abdul	-11.1403
▁dismantl	-11.1403
▁exclud	-11.1403
▁skyrocket	-11.1403
Madonna	-11.1403
Political	-11.1403
harmaceutical	-11.1403
nosaur	-11.1403
yatollah	-11.1403
▁92-73	-11.1403
▁Berdych	-11.1403
▁Cambridge	-11.1403
▁Caribbean	-11.1403
▁Chancellor	-11.1403
▁Confirm	-11.1403
▁Delegate	-11.1403
▁Deloitte	-11.1403
▁Effort	-11.1403
▁Error	-11.1403
▁Filipino	-11.1403
▁HDTV	-11.1403
▁Harmison	-11.1403
▁Himalayan	-11.1403
▁Hockey	-11.1403
▁Investigat	-11.1403
▁Jordan	-11.1403
▁Leonard	-11.1403
▁McPeak	-11.1403
▁Medgyessy	-11.1403
▁Memory	-11.1403
▁Microsystems	-11.1403
▁NASCAR	-11.1403
▁Nevada	-11.1403
▁OLYMPIA	-11.1403
▁Observatory	-11.1403
▁Pinochet	-11.1403
▁PlayStation	-11.1403
▁Private	-11.1403
▁Retreat	-11.1403
▁Straits	-11.1403
▁Survey	-11.1403
▁TAIPEI	-11.1403
▁assassinate	-11.1403
▁assassination	-11.1403
▁association	-11.1403
▁audience	-11.1403
▁ceremony	-11.1403
▁challenging	-11.1403
▁commodities	-11.1403
▁deserved	-11.1403
▁drastic	-11.1403
▁evacuate	-11.1403
▁exploit	-11.1403
▁frequent	-11.1403
▁girlfriend	-11.1403
▁kilometers	-11.1403
▁ligament	-11.1403
▁mechanic	-11.1403
▁miracle	-11.1403
▁neighborhood	-11.1403
▁nominee	-11.1403
▁obtain	-11.1403
▁photograph	-11.1403
▁privacy	-11.1403
▁procedure	-11.1403
▁reservist	-11.1403
▁structur	-11.1403
▁surveillance	-11.1403
▁suspicion	-11.1403
▁tarnish	-11.1403
▁universe	-11.1403
written	-11.1403
▁1999	-11.1403
▁Affect	-11.1403
▁Consider	-11.1403
▁Panthers	-11.1403
▁Siebel	-11.1403
▁consolidat	-11.1403
▁lease	-11.1403
▁moderate	-11.1403
▁powder	-11.1403
▁pursue	-11.1403
▁railway	-11.1403
▁reversal	-11.1403
▁sudden	-11.1403
▁workforce	-11.1403
▁1996	-11.1403
▁Formula	-11.1403
▁Student	-11.1403
▁referr	-11.1403
▁Expand	-11.1403
▁Machine	-11.1403
▁unfair	-11.1403
Pharma	-11.1403
▁Cloud	-11.1403
▁Raiders	-11.1403
▁Would	-11.1403
▁warplane	-11.1403
▁Square	-11.1403
▁Voice	-11.1403
▁brother	-11.1403
▁communities	-11.1403
▁resort	-11.1403
▁Knock	-11.1403
▁Resume	-11.1403
▁warehouse	-11.1403
▁Domain	-11.1403
▁physic	-11.1403
▁overlook	-11.1403
▁smoke	-11.1403
▁Webcam	-11.1403
▁Smith	-11.1403
▁domain	-11.1403
▁swift	-11.1403
▁Course	-11.1403
▁organizers	-11.1403
▁Kingdom	-11.1403
▁Promise	-11.1403
▁freeze	-11.1403
▁Retton	-11.1403
▁Crowd	-11.1403
▁permit	-11.1403
▁Learn	-11.1403
▁Front	-11.1403
▁Lyco	-11.1403
▁Yanks	-11.1403
▁convert	-11.1403
▁PeopleSoft	-11.1403
▁Turkey	-11.1403
▁capabilities	-11.1403
▁falter	-11.1403
▁mob	-11.1403
▁innocent	-11.1403
-19	-11.1403
▁bombard	-11.1403
▁else	-11.1403
▁Snow	-11.1403
▁Preview	-11.1403
▁Slam	-11.1403
▁disqualified	-11.1403
▁Drew	-11.1403
▁influenza	-11.1403
▁7-6	-11.1403
▁contributions	-11.1403
▁hurl	-11.1403
▁Beckham	-11.1403
▁DNA	-11.1403
▁Shoot	-11.1403
▁Hansen	-11.1404
▁antivirus	-11.1404
▁Comment	-11.1404
▁corner	-11.1404
▁Pound	-11.1404
▁ceasefire	-11.1404
▁confront	-11.1404
▁pole	-11.1405
▁expensive	-11.1405
▁Eclipse	-11.1405
▁1,6	-11.1405
REAL	-11.1405
▁introduction	-11.1405
▁eBay	-11.1405
▁craft	-11.1405
▁Brows	-11.1405
▁pirate	-11.1405
▁sheep	-11.1405
▁Ueno	-11.1405
▁multimedia	-11.1405
▁Partner	-11.1406
▁graphics	-11.1406
▁Retir	-11.1406
▁Detail	-11.1406
▁1.5	-11.1406
▁stuff	-11.1406
▁curtai	-11.1406
▁Militiamen	-11.1406
MEX	-11.1406
▁Rescue	-11.1407
▁Boy	-11.1407
▁Throw	-11.1407
▁baby	-11.1407
▁midfield	-11.1407
▁cellphone	-11.1407
▁HOU	-11.1407
▁defect	-11.1408
▁defence	-11.1408
▁racing	-11.1408
idden	-11.1408
▁Await	-11.1408
ibern	-11.1409
▁herself	-11.1409
▁Payton	-11.1409
▁Loong	-11.1409
▁discrimination	-11.141
▁Hotel	-11.141
▁#36;50	-11.141
▁Gates	-11.1411
▁Este	-11.1411
▁Shut	-11.1411
▁momentum	-11.1411
▁2-0	-11.1411
▁Sohu	-11.1411
▁stress	-11.1412
▁Histor	-11.1413
▁nice	-11.1413
▁Communist	-11.1413
▁Passe	-11.1415
▁Outside	-11.1415
▁chaos	-11.1415
host	-11.1416
▁stick	-11.1416
server	-11.1416
▁Both	-11.1416
▁branches	-11.1419
▁tender	-11.1419
▁farmers	-11.142
▁smile	-11.142
▁dock	-11.142
▁Suite	-11.1421
▁1.7	-11.1422
▁direction	-11.1422
▁flip	-11.1424
▁Admi	-11.1425
▁Ark	-11.1425
mingham	-11.1425
▁installation	-11.1427
▁Semi	-11.1427
▁grave	-11.1428
▁YU	-11.1428
▁Shake	-11.1429
▁southwest	-11.1431
▁pinch	-11.1431
garet	-11.1431
▁strip	-11.1434
▁Dust	-11.1436
▁minor	-11.1438
witch	-11.1438
▁Allow	-11.144
▁Makers	-11.1442
▁king	-11.1444
▁Hsi	-11.1446
▁meat	-11.1449
▁tire	-11.1452
CVS	-11.1454
▁assert	-11.1458
▁entr	-11.1469
▁wrapp	-11.147
uperior	-11.1471
▁Enr	-11.1495
quir	-11.1498
▁grabb	-11.1507
1/2	-11.1508
▁Recover	-11.153
▁\$6	-11.1533
▁slipp	-11.1535
ownership	-11.1541
euv	-11.1546
bay	-11.159
▁hype	-11.1619
Dirt	-11.1633
OSS	-11.1646
track	-11.1648
RSS	-11.1683
appe	-11.1715
▁Robb	-11.1722
▁Somalia	-11.1725
▁tapp	-11.1727
▁kn	-11.1749
▁rough	-11.1816
ggle	-11.1827
view	-11.1855
▁Outsourc	-11.1872
▁fad	-11.1919
rnie	-11.1972
pass	-11.2031
▁migrat	-11.2033
▁dedicate	-11.2079
frame	-11.2099
▁Design	-11.2191
▁prosecutor	-11.2204
roughly	-11.221
▁pilot	-11.2211
▁troop	-11.2213
ocks	-11.2244
rchaeologists	-11.2259
4.9	-11.2271
dewal	-11.2328
plicate	-11.2348
▁receiv	-11.2425
▁\$45	-11.2463
▁decid	-11.2475
▁Build	-11.2487
ircraft	-11.2487
vailable	-11.2488
▁erupt	-11.254
▁anticipat	-11.2542
rieve	-11.2544
▁provinc	-11.2558
truck	-11.256
processor	-11.2569
School	-11.257
Nazi	-11.257
voice	-11.2571
delayed	-11.2571
decided	-11.2571
AOL	-11.2572
Linux	-11.2572
profit	-11.2572
Olympic	-11.2572
Monday	-11.2572
Day	-11.2573
burn	-11.2596
ARTI	-11.263
▁branch	-11.2635
rotocol	-11.2641
▁Master	-11.2646
▁Transport	-11.2647
xploration	-11.2649
▁wreck	-11.265
ircuit	-11.265
sanction	-11.2651
▁drama	-11.2651
▁ambitio	-11.2652
▁character	-11.2652
Introduc	-11.2653
coordinat	-11.2653
▁Garcia	-11.2653
▁Weightlift	-11.2653
▁coffee	-11.2653
▁contradict	-11.2653
▁crippl	-11.2653
▁kayak	-11.2653
▁prohibit	-11.2653
▁slaughter	-11.2653
INNEAPOLIS	-11.2653
WOOD	-11.2653
mbassador	-11.2653
xclusivity	-11.2653
▁ABUJA	-11.2653
▁Acquisition	-11.2653
▁Applications	-11.2653
▁Atalanta	-11.2653
▁BRUSSELS	-11.2653
▁Bahrain	-11.2653
▁Behind	-11.2653
▁Berkeley	-11.2653
▁Candidate	-11.2653
▁Clinton	-11.2653
▁CompUSA	-11.2653
▁DiMarco	-11.2653
▁Estrada	-11.2653
▁Explode	-11.2653
▁Falconio	-11.2653
▁Falcons	-11.2653
▁Felix	-11.2653
▁Guerrouj	-11.2653
▁Kadyrov	-11.2653
▁Kazmir	-11.2653
▁Liquid	-11.2653
▁Maintain	-11.2653
▁Mbeki	-11.2653
▁Mediterranean	-11.2653
▁Mutola	-11.2653
▁Politics	-11.2653
▁Prosecutor	-11.2653
▁Scrafton	-11.2653
▁Separate	-11.2653
▁Sunnyvale	-11.2653
▁Surprise	-11.2653
▁Toshiba	-11.2653
▁Welcome	-11.2653
▁accurate	-11.2653
▁admission	-11.2653
▁caution	-11.2653
▁clutch	-11.2653
▁commodity	-11.2653
▁compatible	-11.2653
▁convicted	-11.2653
▁earthquake	-11.2653
▁emotional	-11.2653
▁encircl	-11.2653
▁excuse	-11.2653
▁flotation	-11.2653
▁glacier	-11.2653
▁humiliat	-11.2653
▁inevitable	-11.2653
▁innovative	-11.2653
▁interface	-11.2653
▁knowledge	-11.2653
▁laboratory	-11.2653
▁malaria	-11.2653
▁marriage	-11.2653
▁merchandise	-11.2653
▁ministry	-11.2653
▁nutrition	-11.2653
▁obvious	-11.2653
▁onslaught	-11.2653
▁organisation	-11.2653
▁outsourcing	-11.2653
▁overwhelming	-11.2653
▁professor	-11.2653
▁properties	-11.2653
▁provok	-11.2653
▁scratch	-11.2653
▁society	-11.2653
▁summit	-11.2653
▁synchroniz	-11.2653
▁typical	-11.2653
SMFG	-11.2653
▁Accept	-11.2653
▁Chemical	-11.2653
▁Colgate	-11.2653
▁Collins	-11.2653
▁Gambro	-11.2653
▁Orlando	-11.2653
▁Platform	-11.2653
▁Saints	-11.2653
▁daughter	-11.2653
▁dictator	-11.2653
▁reminder	-11.2653
▁simultaneously	-11.2653
▁vacation	-11.2653
AVEN	-11.2653
DELL	-11.2653
▁Alonso	-11.2653
▁Climate	-11.2653
▁Messier	-11.2653
▁crunch	-11.2653
▁native	-11.2653
▁revamp	-11.2653
cumbent	-11.2653
▁Night	-11.2653
▁Shock	-11.2653
▁suburb	-11.2653
conspiring	-11.2653
▁Bekele	-11.2653
▁Bloom	-11.2653
▁Owners	-11.2653
▁Produce	-11.2653
▁Sleep	-11.2653
▁endurance	-11.2653
▁expir	-11.2653
▁impossible	-11.2653
▁polio	-11.2653
▁punch	-11.2653
▁Biffle	-11.2653
▁Willingham	-11.2653
▁backpack	-11.2653
▁13-10	-11.2653
▁Fastest	-11.2653
▁LLC	-11.2653
▁Kinko	-11.2653
▁Tamil	-11.2653
▁Process	-11.2653
▁complicate	-11.2653
▁hometown	-11.2653
▁mouse	-11.2653
▁Cryst	-11.2653
▁Fitz	-11.2653
▁Triple	-11.2653
▁ultra	-11.2653
▁WPP	-11.2653
▁freelance	-11.2653
▁Question	-11.2653
TechWeb	-11.2653
▁zoo	-11.2653
AMAR	-11.2653
▁gift	-11.2653
▁screamed	-11.2653
▁sweet	-11.2653
▁spiral	-11.2653
▁brewer	-11.2653
ealignment	-11.2653
▁Answer	-11.2653
▁Titan	-11.2653
▁Train	-11.2653
▁prefer	-11.2653
▁nightmare	-11.2653
▁Penney	-11.2653
▁Warrior	-11.2653
▁Large	-11.2653
▁Jail	-11.2653
▁spoil	-11.2653
▁undermine	-11.2653
▁BellSouth	-11.2653
▁spectators	-11.2653
▁Beltre	-11.2653
▁COL	-11.2653
▁Whale	-11.2653
Phillip	-11.2653
▁Church	-11.2653
▁elsewhere	-11.2653
▁Cloth	-11.2653
▁kingdom	-11.2653
▁snow	-11.2653
▁Ravens	-11.2653
▁interactive	-11.2653
▁laugh	-11.2653
▁\$7.4	-11.2653
mouth	-11.2653
AZA	-11.2653
▁encryption	-11.2653
▁denounce	-11.2653
▁microchip	-11.2653
▁Jeter	-11.2654
▁echo	-11.2654
▁transform	-11.2654
AIRO	-11.2654
▁recognize	-11.2654
▁UAE	-11.2654
Tahoe	-11.2654
▁counterpart	-11.2654
▁Statu	-11.2654
tiller	-11.2654
,400	-11.2654
▁landscape	-11.2654
font	-11.2654
▁practi	-11.2654
."\\	-11.2654
Logic	-11.2654
▁Wave	-11.2655
▁\$8.6	-11.2655
▁pharmacies	-11.2655
▁Martinez	-11.2655
▁fruit	-11.2655
▁Stapl	-11.2655
▁neck	-11.2655
ndustrial	-11.2655
▁Decline	-11.2655
▁Shoe	-11.2655
▁junk	-11.2655
▁harm	-11.2655
▁chapter	-11.2655
dential	-11.2655
▁Seoul	-11.2655
▁Though	-11.2655
▁erod	-11.2655
▁medicine	-11.2655
▁Stay	-11.2656
▁extradit	-11.2656
▁Trend	-11.2656
▁coloni	-11.2656
▁moral	-11.2656
▁Tears	-11.2656
ERTS	-11.2656
▁primary	-11.2656
Opinion	-11.2656
quo	-11.2657
CIEN	-11.2657
▁3.5	-11.2657
▁Compa	-11.2658
Click	-11.2658
▁bullet	-11.2658
.28	-11.2659
▁freedom	-11.2659
▁Baby	-11.2659
▁grip	-11.2659
▁Transportation	-11.266
▁detention	-11.266
encies	-11.266
▁lake	-11.2661
▁copy	-11.2661
pulsi	-11.2662
▁Funn	-11.2662
▁reopen	-11.2664
▁secretary	-11.2664
▁keyboard	-11.2664
▁mole	-11.2665
▁sideline	-11.2665
▁whisk	-11.2665
▁dress	-11.2665
▁Marty	-11.2666
▁greet	-11.2666
▁shine	-11.2666
▁0.9	-11.2667
▁Shift	-11.2667
▁however	-11.2667
▁Simm	-11.2668
netti	-11.2668
iddle	-11.2668
RAW	-11.2668
▁8-5	-11.2668
▁Spie	-11.2668
ungste	-11.2668
▁Luke	-11.267
hapter	-11.2671
▁buck	-11.2671
▁Reform	-11.2671
lph	-11.2672
▁handful	-11.2672
gotten	-11.2675
▁bottle	-11.2676
▁distribut	-11.2676
MOM	-11.2677
life	-11.2677
graphic	-11.2678
▁bow	-11.2681
▁nav	-11.2683
PLC	-11.2685
▁Cast	-11.2685
▁Denie	-11.2687
▁bench	-11.2687
▁\$1.8	-11.2688
▁reactor	-11.2688
ENG	-11.2691
ayoffs	-11.2693
▁Zoo	-11.2701
▁tanta	-11.2706
▁Patric	-11.2707
▁generat	-11.2711
▁invite	-11.2711
centive	-11.2713
▁epi	-11.2727
Better	-11.2736
▁Payment	-11.2741
kinson	-11.2756
▁enabl	-11.277
▁Nort	-11.2771
▁shame	-11.2775
▁Drag	-11.2796
▁dive	-11.2799
brid	-11.2845
ECK	-11.2866
▁construct	-11.2975
▁Victoria	-11.3028
quest	-11.3099
ARD	-11.3107
home	-11.3122
inspired	-11.3131
Vita	-11.3172
FRE	-11.3174
BBC	-11.3227
LAS	-11.333
ctur	-11.3458
▁estimate	-11.3591
▁insurer	-11.3632
▁student	-11.3639
▁Somali	-11.3675
TRA	-11.3692
skie	-11.3706
▁settl	-11.3784
exact	-11.3816
hyped	-11.3816
▁dismiss	-11.3826
▁Truck	-11.3852
▁underlin	-11.3872
ountain	-11.3879
▁Scor	-11.3896
ssembly	-11.3913
xtension	-11.3929
▁wor	-11.3968
missions	-11.3972
piece	-11.3987
8-4	-11.3994
People	-11.3999
protect	-11.4
General	-11.4
research	-11.4
Life	-11.4
young	-11.4
Report	-11.4001
President	-11.4001
Thursday	-11.4001
company	-11.4001
Final	-11.4001
summer	-11.4001
launch	-11.4001
Series	-11.4004
▁reverse	-11.4034
▁teenage	-11.4055
▁inju	-11.4056
▁drag	-11.4057
swapp	-11.4065
▁alcohol	-11.4068
traight	-11.407
▁Parliament	-11.407
▁Medica	-11.407
otential	-11.4075
▁Meteor	-11.4079
nstrument	-11.408
craigslist	-11.4081
▁casual	-11.4081
boyfriend	-11.4081
disqualification	-11.4081
examination	-11.4081
imbecile	-11.4081
xaggerat	-11.4081
▁AUSTRALIA	-11.4081
▁AdWords	-11.4081
▁Amcor	-11.4081
▁Arlington	-11.4081
▁Arnold	-11.4081
▁Balloon	-11.4081
▁Benjamin	-11.4081
▁Bruijn	-11.4081
▁Calayan	-11.4081
▁Coalition	-11.4081
▁Condemn	-11.4081
▁Connecticut	-11.4081
▁Coughlin	-11.4081
▁Craigslist	-11.4081
▁Cruise	-11.4081
▁DELHI	-11.4081
▁Director	-11.4081
▁Dirrell	-11.4081
▁Emergenc	-11.4081
▁Escalate	-11.4081
▁Girlfriend	-11.4081
▁Hussein	-11.4081
▁JAKARTA	-11.4081
▁Jenkins	-11.4081
▁Logicalis	-11.4081
▁Macapagal	-11.4081
▁Megawati	-11.4081
▁Messenger	-11.4081
▁Ohalete	-11.4081
▁Patrol	-11.4081
▁Picture	-11.4081
▁RAMALLAH	-11.4081
▁REVIEW	-11.4081
▁Riggs	-11.4081
▁Saddam	-11.4081
▁Shanghai	-11.4081
▁StreamCast	-11.4081
▁Swimmer	-11.4081
▁Synopsys	-11.4081
▁Syrian	-11.4081
▁Telegraph	-11.4081
▁Vivendi	-11.4081
▁Vodafone	-11.4081
▁Wambach	-11.4081
▁bizarre	-11.4081
▁bubble	-11.4081
▁casino	-11.4081
▁category	-11.4081
▁collision	-11.4081
▁departure	-11.4081
▁fertilizer	-11.4081
▁fracture	-11.4081
▁graduate	-11.4081
▁husband	-11.4081
▁indictment	-11.4081
▁logistic	-11.4081
▁obstacle	-11.4081
▁patroll	-11.4081
▁peninsula	-11.4081
▁petrol	-11.4081
▁robbers	-11.4081
▁satisfied	-11.4081
▁scrimmage	-11.4081
▁sponsor	-11.4081
▁yellow	-11.4081
luctuat	-11.4081
▁Cannons	-11.4081
▁FOMA	-11.4081
▁Firewall	-11.4081
▁Natural	-11.4081
▁Nunez	-11.4081
▁Rashid	-11.4081
▁Salesforce	-11.4081
▁Value	-11.4081
▁assistance	-11.4081
▁behavior	-11.4081
▁blitz	-11.4081
▁computing	-11.4081
▁cricket	-11.4081
▁disorder	-11.4081
▁encounter	-11.4081
▁genuine	-11.4081
▁imprison	-11.4081
▁insolven	-11.4081
▁legitimate	-11.4081
▁prominent	-11.4081
▁reaffirm	-11.4081
▁substance	-11.4081
RCMP	-11.4081
ynamic	-11.4081
▁Monitor	-11.4081
▁Munich	-11.4081
▁casualties	-11.4081
▁complian	-11.4081
▁concrete	-11.4081
▁execution	-11.4081
▁festiv	-11.4081
▁firewall	-11.4081
▁monkey	-11.4081
▁premium	-11.4081
▁reliever	-11.4081
▁reputation	-11.4081
▁retaliat	-11.4081
▁scheme	-11.4081
▁slogan	-11.4081
▁suprem	-11.4081
Huygens	-11.4081
SMIC	-11.4081
▁Children	-11.4081
▁Opteron	-11.4081
▁fashion	-11.4081
▁Lynn	-11.4081
▁Shuttle	-11.4081
▁Watson	-11.4081
▁1992	-11.4081
▁Rigas	-11.4081
▁Terminat	-11.4081
▁formula	-11.4081
▁method	-11.4081
eopard	-11.4081
▁Ronald	-11.4081
▁RIAA	-11.4081
▁Rooney	-11.4081
▁Appear	-11.4081
▁Kreme	-11.4081
▁Morgan	-11.4081
proclaim	-11.4081
▁Aftermath	-11.4081
▁intercept	-11.4081
▁Kirk	-11.4081
▁Mohamm	-11.4081
▁NHL	-11.4081
▁absence	-11.4081
ubpoena	-11.4081
▁assail	-11.4081
▁slack	-11.4081
▁social	-11.4081
▁Pitch	-11.4081
▁whistle	-11.4081
▁Metz	-11.4081
isclosure	-11.4081
▁Dorman	-11.4081
▁Fuel	-11.4081
▁Phish	-11.4081
▁disabled	-11.4081
▁frag	-11.4081
ggage	-11.4081
▁Riley	-11.4081
▁Cyber	-11.4081
▁premier	-11.4081
▁inherit	-11.4081
▁Wendy	-11.4081
▁hiding	-11.4081
▁Mohr	-11.4082
fficient	-11.4082
▁retain	-11.4082
▁grid	-11.4082
▁false	-11.4082
▁utter	-11.4082
▁SMB	-11.4082
▁Skill	-11.4082
▁guest	-11.4082
▁IRA	-11.4082
▁elder	-11.4082
▁Shopp	-11.4082
▁Clean	-11.4082
▁Fantas	-11.4082
▁unrest	-11.4082
▁wildlife	-11.4082
▁Qualify	-11.4082
▁empty	-11.4082
▁GSM	-11.4082
▁7-4	-11.4082
▁leak	-11.4082
▁Holly	-11.4082
▁Arson	-11.4082
▁Beard	-11.4082
▁dividend	-11.4082
▁Multi	-11.4083
▁geologist	-11.4083
▁exhaust	-11.4083
▁Photo	-11.4083
▁Robbins	-11.4083
▁wrea	-11.4083
▁DAR	-11.4083
▁heroes	-11.4083
▁Pru	-11.4084
▁presidency	-11.4084
▁Portland	-11.4084
▁Task	-11.4084
▁circuit	-11.4084
▁canoe	-11.4084
▁wreckage	-11.4084
▁Lucent	-11.4085
TSMC	-11.4085
▁minority	-11.4085
▁8.2	-11.4085
▁headache	-11.4085
▁Judo	-11.4085
▁Joann	-11.4085
▁detonat	-11.4086
▁spotlight	-11.4086
▁constitution	-11.4086
▁MARK	-11.4086
▁Metro	-11.4086
▁Violat	-11.4087
▁splash	-11.4088
▁Resign	-11.4088
urozone	-11.4088
▁Check	-11.4088
▁sync	-11.4089
▁tempt	-11.4089
onservative	-11.409
▁flexib	-11.409
▁Safe	-11.409
▁clock	-11.4091
▁spike	-11.4091
▁Local	-11.4091
▁steam	-11.4091
▁mediator	-11.4091
▁cab	-11.4094
▁linger	-11.4097
DRM	-11.4097
WHO	-11.4099
▁careful	-11.4103
skirt	-11.4104
NATI	-11.4105
▁iron	-11.4106
▁Geo	-11.4107
▁imagine	-11.411
▁Bug	-11.4113
▁hover	-11.4114
gunships	-11.4115
▁embryo	-11.4116
▁Idea	-11.4116
▁Veg	-11.4118
phy	-11.4121
▁Single	-11.4126
directly	-11.4138
Maktoum	-11.4148
▁torch	-11.4152
▁1.2	-11.4165
strik	-11.4177
▁Village	-11.4182
stopping	-11.4193
▁Fix	-11.4198
▁wish	-11.4208
▁griev	-11.4209
▁subsid	-11.4229
▁dissen	-11.4254
basa	-11.4305
7.8	-11.4335
▁Herat	-11.4367
▁blaze	-11.4368
▁Restor	-11.4413
rrant	-11.4418
▁patient	-11.4474
ankruptcy	-11.4476
urgery	-11.4479
▁archaeologist	-11.4556
pace	-11.4656
spoken	-11.4766
Soft	-11.4833
emote	-11.4921
immed	-11.4934
STER	-11.4938
▁Giv	-11.507
HAM	-11.5095
surfer	-11.5157
6.5	-11.5189
panel	-11.5218
▁Victor	-11.5222
▁activist	-11.5298
heels	-11.5317
Trust	-11.5352
▁arriv	-11.5417
▁uncertain	-11.5478
▁\$60	-11.5551
▁releas	-11.5567
▁lev	-11.5576
obble	-11.5593
▁Judg	-11.5615
eason	-11.5627
flu	-11.5644
trip	-11.5646
CHI	-11.5648
public	-11.5659
SEATTLE	-11.5664
virus	-11.5665
consider	-11.5665
stream	-11.5665
Business	-11.5667
general	-11.5667
changed	-11.5667
Bay	-11.5667
country	-11.5667
First	-11.5667
South	-11.5667
would	-11.5668
good	-11.5668
after	-11.5668
Aug	-11.5673
▁combine	-11.57
▁engage	-11.57
▁criticize	-11.57
▁rallie	-11.5703
▁Treasur	-11.5707
▁refin	-11.5708
spects	-11.5716
▁realiz	-11.5719
▁merge	-11.5729
pacecraft	-11.5737
▁peacekeep	-11.5737
▁discriminat	-11.5739
▁Protect	-11.5739
▁cooperat	-11.5739
▁shrug	-11.5741
▁Acqui	-11.5741
urgency	-11.5743
quipment	-11.5744
▁Secret	-11.5744
Investor	-11.5745
aught	-11.5745
etween	-11.5745
egotiations	-11.5747
ecause	-11.5747
nfringement	-11.5747
▁divid	-11.5747
pseries	-11.5748
▁Barghout	-11.5748
▁SOUTH	-11.5748
▁acclaim	-11.5748
▁council	-11.5748
▁disturb	-11.5748
Aluminum	-11.5748
Gevaert	-11.5748
mmortal	-11.5748
mugglers	-11.5748
▁Assault	-11.5748
▁Autodesk	-11.5748
▁Budapest	-11.5748
▁Candrea	-11.5748
▁Democracy	-11.5748
▁Diamondbacks	-11.5748
▁Disappoint	-11.5748
▁Dominican	-11.5748
▁Frango	-11.5748
▁Grumman	-11.5748
▁Heathrow	-11.5748
▁Helicopter	-11.5748
▁Hlinka	-11.5748
▁Indianapolis	-11.5748
▁Indicators	-11.5748
▁Islamist	-11.5748
▁Jeeves	-11.5748
▁JibJab	-11.5748
▁Katmandu	-11.5748
▁Kentucky	-11.5748
▁Kupets	-11.5748
▁Lenovo	-11.5748
▁Lloyd	-11.5748
▁Locust	-11.5748
▁Mercury	-11.5748
▁Method	-11.5748
▁Mideast	-11.5748
▁Montgomer	-11.5748
▁Notebook	-11.5748
▁Oklahoma	-11.5748
▁Pappas	-11.5748
▁Phoenix	-11.5748
▁Predict	-11.5748
▁Pujols	-11.5748
▁Renault	-11.5748
▁Saulnier	-11.5748
▁Steady	-11.5748
▁TEHRAN	-11.5748
▁Talbots	-11.5748
▁Tejada	-11.5748
▁Tennessee	-11.5748
▁Thompson	-11.5748
▁WholeSecurity	-11.5748
▁abrupt	-11.5748
▁accomplish	-11.5748
▁administrative	-11.5748
▁administrator	-11.5748
▁airlift	-11.5748
▁antidepressant	-11.5748
▁bookseller	-11.5748
▁calendar	-11.5748
▁closure	-11.5748
▁corporation	-11.5748
▁deliberate	-11.5748
▁earliest	-11.5748
▁empire	-11.5748
▁excellen	-11.5748
▁excitement	-11.5748
▁expedition	-11.5748
▁explanation	-11.5748
▁flirt	-11.5748
▁frustration	-11.5748
▁furniture	-11.5748
▁graffiti	-11.5748
▁horizon	-11.5748
▁immigrants	-11.5748
▁journey	-11.5748
▁kernel	-11.5748
▁memorabilia	-11.5748
▁obligation	-11.5748
▁orphanage	-11.5748
▁recuperati	-11.5748
▁roadblock	-11.5748
▁sandwiches	-11.5748
▁satisfy	-11.5748
▁smooth	-11.5748
▁stabiliz	-11.5748
▁stockpiles	-11.5748
▁subsidiary	-11.5748
▁trouncing	-11.5748
▁turmoil	-11.5748
▁wrote	-11.5748
CHINA	-11.5748
Witnesses	-11.5748
prehensi	-11.5748
▁Dampier	-11.5748
▁Genetic	-11.5748
▁LeBron	-11.5748
▁MILAN	-11.5748
▁Perfect	-11.5748
▁Powerbook	-11.5748
▁Tumble	-11.5748
▁Valenti	-11.5748
▁Vaugh	-11.5748
▁concept	-11.5748
▁concoct	-11.5748
▁irregular	-11.5748
▁nanotechnology	-11.5748
▁#36;46	-11.5748
▁Alleged	-11.5748
▁Cease	-11.5748
▁Nemov	-11.5748
▁Teenager	-11.5748
▁Wrestl	-11.5748
▁bridge	-11.5748
▁conceded	-11.5748
▁eggs	-11.5748
▁ejection	-11.5748
▁faith	-11.5748
▁gradual	-11.5748
▁meltdown	-11.5748
▁transmit	-11.5748
Analysis	-11.5748
amstring	-11.5748
▁1997	-11.5748
▁Kroger	-11.5748
▁XML	-11.5748
▁permanent	-11.5748
▁radiation	-11.5748
▁1988	-11.5748
▁Differen	-11.5748
▁bruise	-11.5748
▁bulk	-11.5748
▁compil	-11.5748
▁farewell	-11.5748
▁intrusi	-11.5748
▁scarce	-11.5748
▁\$226	-11.5748
▁geograph	-11.5748
▁scorch	-11.5748
GTW	-11.5748
▁1984	-11.5748
▁Narrow	-11.5748
▁fantas	-11.5748
▁shark	-11.5748
▁WWI	-11.5748
▁torrent	-11.5748
▁Glaxo	-11.5748
▁PORT	-11.5748
▁sneak	-11.5748
▁summar	-11.5748
▁attached	-11.5748
▁complications	-11.5748
▁LAURA	-11.5748
▁digest	-11.5748
▁Sysco	-11.5748
▁invok	-11.5748
▁relax	-11.5748
nstein	-11.5748
▁Freeze	-11.5748
▁Speedway	-11.5748
▁bicker	-11.5748
OLF	-11.5748
▁fortune	-11.5748
▁scoop	-11.5748
▁protein	-11.5748
▁Redmond	-11.5748
▁brutal	-11.5748
▁Child	-11.5748
▁Further	-11.5748
▁eligib	-11.5748
▁bowler	-11.5748
▁shelf	-11.5748
PTI	-11.5748
▁MLB	-11.5748
▁Adult	-11.5748
▁Minute	-11.5748
▁DIE	-11.5748
▁Imperi	-11.5748
▁Touche	-11.5748
▁Universal	-11.5748
mplication	-11.5748
▁Declar	-11.5748
Sahara	-11.5748
POWER	-11.5748
▁poach	-11.5748
orrespondent	-11.5748
entative	-11.5748
▁Morning	-11.5748
burden	-11.5748
▁Postpone	-11.5748
▁entice	-11.5748
▁Highlights	-11.5748
▁Blind	-11.5748
▁Simpl	-11.5748
▁Strain	-11.5748
utchi	-11.5748
▁Provide	-11.5748
▁vacuum	-11.5748
▁Steel	-11.5749
▁magnificent	-11.5749
▁Emba	-11.5749
▁outfit	-11.5749
HIS	-11.5749
▁Solid	-11.5749
▁odd	-11.5749
▁restrictions	-11.5749
▁thick	-11.5749
▁Geoff	-11.5749
▁Boat	-11.5749
▁wallets	-11.5749
▁alarm	-11.5749
▁orange	-11.5749
▁Contest	-11.5749
ATIONS	-11.5749
▁IRS	-11.5749
▁firing	-11.5749
▁ambitions	-11.5749
digit	-11.5749
accine	-11.575
▁Sanction	-11.575
▁Ticket	-11.575
Claria	-11.575
NPS	-11.575
▁capability	-11.575
▁7-2	-11.575
▁Suzuki	-11.575
boardroom	-11.575
▁#36;49	-11.575
▁Smart	-11.575
▁showcas	-11.575
▁Desert	-11.575
▁reeling	-11.5751
▁transmission	-11.5751
▁Assam	-11.5751
▁\$1.3	-11.5751
▁Akh	-11.5751
▁NASD	-11.5751
▁Adapt	-11.5751
ibm	-11.5751
▁Alert	-11.5752
▁Pct	-11.5752
▁Baker	-11.5752
▁rubb	-11.5752
▁Pirah	-11.5752
anyi	-11.5752
lfred	-11.5754
terribl	-11.5755
Veri	-11.5755
▁lagg	-11.5758
▁scru	-11.5758
robbing	-11.5758
advert	-11.576
belief	-11.576
▁overstat	-11.5761
EAD	-11.5763
MOT	-11.5766
pecies	-11.5766
▁Phil	-11.5769
▁verb	-11.5772
pbeat	-11.5775
▁assume	-11.5782
ombardi	-11.5788
\$35	-11.5799
Monster	-11.5834
▁Uncle	-11.5838
▁slate	-11.5848
AAPL	-11.5904
evil	-11.5933
Member	-11.5948
eteorologists	-11.5957
▁Curt	-11.6059
companie	-11.609
▁antiquit	-11.612
▁Fift	-11.6196
quity	-11.6219
▁basi	-11.6229
▁participa	-11.6246
certainty	-11.6249
esignate	-11.6326
▁germ	-11.639
ART	-11.6411
▁circl	-11.6471
▁brin	-11.6519
▁definiti	-11.6684
nguin	-11.6761
▁ceme	-11.6821
▁advanc	-11.6956
folk	-11.6999
locate	-11.7011
▁disclose	-11.7146
▁Angel	-11.7291
▁Militant	-11.7305
▁respi	-11.7333
▁squeez	-11.734
▁origin	-11.7417
definitely	-11.7425
▁Gru	-11.7438
▁Independen	-11.7532
▁Nanotech	-11.7562
ntitrust	-11.758
▁Villa	-11.7604
▁surround	-11.7629
▁enthusias	-11.7654
auditors	-11.7664
century	-11.7664
couple	-11.7665
Silicon	-11.7665
limited	-11.7665
professional	-11.7666
Terror	-11.7666
blood	-11.7666
Dream	-11.7666
militiamen	-11.7666
Office	-11.7666
Week	-11.7667
campaign	-11.7667
food	-11.7667
ARM	-11.7667
Hurricane	-11.7667
fighting	-11.7667
industry	-11.7667
India	-11.7667
growth	-11.7667
attack	-11.7667
Earth	-11.7667
people	-11.7667
That	-11.7668
Sunday	-11.7668
Price	-11.7668
could	-11.7668
▁Messag	-11.7677
large	-11.7688
rugs	-11.7692
▁upgrad	-11.7705
courage	-11.7708
▁currenc	-11.7712
TION	-11.7714
ollywood	-11.7737
▁Belgi	-11.7738
rimary	-11.7742
rovince	-11.7744
xpensive	-11.7744
irthday	-11.7745
escue	-11.7746
efensive	-11.7747
qualified	-11.7747
hawks	-11.7747
▁Compet	-11.7747
▁Citizens	-11.7747
pectator	-11.7748
RNWK	-11.7748
▁BUJUMBURA	-11.7748
▁Jupiter	-11.7748
▁cheek	-11.7748
▁illustr	-11.7748
▁neutral	-11.7748
Experimental	-11.7748
InfoW	-11.7748
Matildas	-11.7748
SBURG	-11.7748
ecrecy	-11.7748
integrity	-11.7748
neglect	-11.7748
yndrome	-11.7748
▁AMERICA	-11.7748
▁Advocate	-11.7748
▁Anthony	-11.7748
▁Approval	-11.7748
▁Astronauts	-11.7748
▁BUDAPEST	-11.7748
▁Bluetooth	-11.7748
▁Buddhis	-11.7748
▁Cadillac	-11.7748
▁CallVantage	-11.7748
▁Century	-11.7748
▁Columbus	-11.7748
▁Conflict	-11.7748
▁Copyright	-11.7748
▁Criminal	-11.7748
▁Dambulla	-11.7748
▁Detainee	-11.7748
▁Duncan	-11.7748
▁Employe	-11.7748
▁Erupt	-11.7748
▁Exercise	-11.7748
▁Fairfax	-11.7748
▁February	-11.7748
▁Ferguson	-11.7748
▁Ferrari	-11.7748
▁Giambi	-11.7748
▁Harmony	-11.7748
▁Improve	-11.7748
▁Javalobby	-11.7748
▁Jerusalem	-11.7748
▁Keyword	-11.7748
▁Laptop	-11.7748
▁Legislat	-11.7748
▁MANILA	-11.7748
▁Magazine	-11.7748
▁McGreevey	-11.7748
▁Medicine	-11.7748
▁Montana	-11.7748
▁Nassiriya	-11.7748
▁Observation	-11.7748
▁Organisation	-11.7748
▁PASADENA	-11.7748
▁Panchen	-11.7748
▁Purchas	-11.7748
▁Restructur	-11.7748
▁SHANGHAI	-11.7748
▁Silverstein	-11.7748
▁Split	-11.7748
▁Subscriber	-11.7748
▁Trojan	-11.7748
▁Wajed	-11.7748
▁Wallabies	-11.7748
▁ZURICH	-11.7748
▁Zurich	-11.7748
▁academic	-11.7748
▁accelerating	-11.7748
▁activate	-11.7748
▁ancestors	-11.7748
▁applause	-11.7748
▁attitude	-11.7748
▁ballpark	-11.7748
▁calculate	-11.7748
▁celebrit	-11.7748
▁ceremoni	-11.7748
▁compatriot	-11.7748
▁conclusion	-11.7748
▁credentials	-11.7748
▁deposit	-11.7748
▁disagreement	-11.7748
▁dissolve	-11.7748
▁distraction	-11.7748
▁dwindling	-11.7748
▁economies	-11.7748
▁elephant	-11.7748
▁emphasiz	-11.7748
▁endorsement	-11.7748
▁enormous	-11.7748
▁falcon	-11.7748
▁fraudulent	-11.7748
▁furnishings	-11.7748
▁galaxy	-11.7748
▁genocide	-11.7748
▁gruel	-11.7748
▁guarantee	-11.7748
▁intensify	-11.7748
▁interrogat	-11.7748
▁kilometre	-11.7748
▁liquor	-11.7748
▁lobster	-11.7748
▁methamphetamine	-11.7748
▁migrant	-11.7748
▁opportunities	-11.7748
▁organisers	-11.7748
▁pandemic	-11.7748
▁parallel	-11.7748
▁penalties	-11.7748
▁pigeon	-11.7748
▁pocket	-11.7748
▁principle	-11.7748
▁purveyor	-11.7748
▁reboot	-11.7748
▁recession	-11.7748
▁regime	-11.7748
▁renovation	-11.7748
▁residence	-11.7748
▁revival	-11.7748
▁rodents	-11.7748
▁senator	-11.7748
▁slalom	-11.7748
▁supercomputer	-11.7748
▁swagger	-11.7748
▁symptoms	-11.7748
▁tattoo	-11.7748
▁thwart	-11.7748
▁tragedy	-11.7748
▁tunnel	-11.7748
▁weightlifting	-11.7748
▁Agricultur	-11.7748
▁Austin	-11.7748
▁Calgary	-11.7748
▁Capsule	-11.7748
▁Certainly	-11.7748
▁Command	-11.7748
▁Disease	-11.7748
▁Education	-11.7748
▁Expedition	-11.7748
▁Forrester	-11.7748
▁GameStop	-11.7748
▁Inspire	-11.7748
▁Kazakhstan	-11.7748
▁Liechtenstein	-11.7748
▁Lincoln	-11.7748
▁Navratilova	-11.7748
▁Omniture	-11.7748
▁Riddick	-11.7748
▁Spotlight	-11.7748
▁Telephone	-11.7748
▁Viagra	-11.7748
▁\$12.6	-11.7748
▁algorithm	-11.7748
▁creative	-11.7748
▁diminish	-11.7748
▁incredibl	-11.7748
▁jeopardiz	-11.7748
▁mastermind	-11.7748
▁pontiff	-11.7748
▁pornograph	-11.7748
▁pricing	-11.7748
▁prosecution	-11.7748
▁regulate	-11.7748
▁revok	-11.7748
▁trumpet	-11.7748
▁Bosnia	-11.7748
▁Physici	-11.7748
▁Pollution	-11.7748
▁chicken	-11.7748
▁disgrace	-11.7748
▁dolphin	-11.7748
▁inflated	-11.7748
▁nature	-11.7748
▁poverty	-11.7748
▁shrink	-11.7748
▁valley	-11.7748
▁1998	-11.7748
▁Camera	-11.7748
▁Consult	-11.7748
▁Currenc	-11.7748
▁Denounce	-11.7748
▁Document	-11.7748
▁Naples	-11.7748
▁Scams	-11.7748
▁Special	-11.7748
▁bullpen	-11.7748
▁gadget	-11.7748
▁harsh	-11.7748
▁patron	-11.7748
▁pharmacare	-11.7748
▁rebuff	-11.7748
▁simmer	-11.7748
▁Cricket	-11.7748
▁Glacier	-11.7748
▁Oscar	-11.7748
▁PAUL	-11.7748
▁concert	-11.7748
▁ALEX	-11.7748
▁Editor	-11.7748
▁Lumpur	-11.7748
▁MATT	-11.7748
▁Roadshow	-11.7748
▁depriv	-11.7748
▁gesture	-11.7748
▁lucky	-11.7748
▁nomination	-11.7748
▁Wigley	-11.7748
▁Tight	-11.7748
▁centuries	-11.7748
▁glance	-11.7748
▁unanimous	-11.7748
intensive	-11.7748
▁Capture	-11.7748
▁temple	-11.7748
bilitat	-11.7748
▁ITunes	-11.7748
▁Streak	-11.7748
▁Stream	-11.7748
▁rivers	-11.7748
▁Bailey	-11.7748
▁Muddl	-11.7748
\$52.2	-11.7748
▁Debate	-11.7748
▁sprain	-11.7748
▁Examin	-11.7748
▁dawn	-11.7748
▁Griev	-11.7748
▁choke	-11.7748
▁Damage	-11.7748
▁Escobedo	-11.7748
▁Twice	-11.7748
▁Dillon	-11.7748
▁Kiwi	-11.7748
▁Sight	-11.7748
▁Telecom	-11.7748
▁guidelines	-11.7748
▁robbed	-11.7748
▁Content	-11.7748
▁Nature	-11.7748
▁Spark	-11.7748
▁Frederic	-11.7748
▁crimp	-11.7748
▁porch	-11.7748
▁Vendor	-11.7748
▁terrifi	-11.7748
▁Favre	-11.7748
▁revitalize	-11.7748
$	-12.8583
